#version: 0.2
Ġ t
Ġ a
h e
i n
Ġt he
e r
Ġ s
o n
Ġ ,
r e
Ġ w
Ġ c
Ġ o
e d
Ġ b
n d
Ġ .
Ġ f
a t
i t
Ġ in
o r
e n
Ġ p
Ġ m
i s
e s
a r
Ġo f
a n
a l
Ġ d
in g
Ġa nd
a s
Ġ h
r o
Ġt o
i c
Ġ l
i on
o u
Ġ n
Ġ re
i l
Ġt h
Ġ e
Ġ g
en t
l e
Ġ "
Ġ 1
s t
a m
e l
o m
a d
Ġ on
a c
Ġw as
Ġs t
Ġb e
u r
l y
Ġ he
Ġ u
i d
Ġf or
i m
Ġa s
Ġ '
o l
i r
i v
t er
i g
Ġ -
t h
c t
Ġ r
o w
Ġa l
a y
it h
Ġ 2
u t
v er
o t
e t
Ġw ith
at ion
Ġth at
c e
Ġ it
Ġ is
Ġw h
Ġ j
c h
Ġc on
Ġa t
Ġb y
Ġa n
Ġd e
Ġs e
u s
Ġ k
u l
Ġ v
Ġc h
a nd
e m
ro m
a in
o s
er s
Ġ1 9
a g
a v
Ġc om
Ġh is
he r
es t
u m
0 0
Ġf rom
r i
o d
Ġs u
Ġp ro
p e
i f
is t
Ġ y
u n
er e
re s
a p
il l
Ġn e
s e
l d
i es
or t
o re
o p
Ġw ere
Ġs h
Ġ ro
ig h
a k
Ġo r
Ġp l
at e
on g
al l
a b
ar d
q u
ic h
ar t
Ġu n
Ġe x
b er
an t
it y
g h
at ed
u d
Ġl e
Ġa r
o c
am e
es s
Ġa re
Ġt r
iv e
Ġh ad
ac k
i p
i e
ro u
i an
as t
Ġwh ich
re d
Ġn ot
ou r
m ent
g e
p t
o v
Ġa f
in e
r it
c l
u st
i al
igh t
o st
i a
Ġw he
el l
or d
Ġ 3
ou n
t her
ic al
is h
av e
Ġcom p
p p
ar y
Ġc l
Ġth is
Ġb ut
Ġa d
Ġs c
c c
Ġf ir
Ġ2 00
o g
Ġt w
Ġin t
Ġ en
Ġw or
ct ion
Ġthe ir
Ġcon t
ou s
Ġfir st
Ġhe r
Ġa b
Ġb o
Ġit s
r a
id e
s o
ou ld
Ġm an
Ġ i
Ġa m
Ġaf ter
u re
Ġal l
Ġon e
Ġthe y
p er
Ġ2 0
ig n
Ġt e
om e
Ġp er
Ġal so
he d
ou t
Ġs p
o k
it ion
r u
as s
Ġs he
Ġu s
t e
Ġf e
Ġcom m
Ġre c
Ġt im
at er
i re
u e
Ġtw o
Ġne w
ag e
u b
on d
Ġm ar
ow n
r y
Ġa g
or m
Ġre s
Ġh ave
re e
Ġ 4
Ġd es
Ġm e
e ar
Ġ 5
Ġ im
Ġbe en
Ġs er
Ġh as
Ġbe c
Ġg o
Ġp art
Ġd is
an s
t ed
ur ing
p l
Ġwh o
al ly
en ce
ou gh
an ce
il e
d u
Ġpl ay
a re
Ġ1 8
Ġof f
Ġo ver
l and
Ġo ther
i z
ic e
Ġy ear
ac h
Ġe v
f f
ation s
e ct
Ġw e
el y
ad e
Ġc o
or y
cl ud
i k
Ġ20 1
an g
Ġf in
Ġc ol
i b
Ġo ut
Ġu p
t s
w n
ou nd
Ġp re
r ic
ion s
ur n
ac e
Ġd uring
Ġin ter
Ġf l
it e
Ġwhe n
Ġin clud
Ġp o
Ġc ent
Ġtim e
Ġat t
res s
en s
nd er
Ġin d
Ġe ar
Ġs pe
ac t
w e
Ġc an
Ġint o
Ġa p
k s
Ġs a
c es
Ġb r
ul t
on e
Ġse c
oun t
w ard
Ġm ore
Ġ 6
c ed
re n
m an
Ġw ould
ol l
am p
i ed
Ġp r
Ġb l
Ġs ong
rou gh
Ġp e
Ġfor m
Ġw ar
p ort
Ġh im
Ġk n
ab le
Ġ 7
it ed
Ġs ou
Ġn o
a il
as on
Ġg r
ing s
Ġm ost
Ġch ar
Ġ qu
w ay
is s
l es
as ed
Ġs ome
Ġre m
Ġbe t
as e
ent s
at es
Ġj o
Ġf il
i ous
rou nd
os e
ri b
Ġn or
Ġas s
at t
Ġm ay
Ġthe m
Ġwh ile
Ġm us
r al
i x
Ġ ver
Ġthe re
il d
g an
Ġon ly
or s
Ġ 9
Ġu nder
Ġre g
Ġg ame
Ġc ar
ak e
Ġa cc
Ġag ain
at h
Ġh ow
er ed
f orm
em ber
Ġs o
Ġth ree
Ġcon s
Ġg en
Ġf r
v el
al s
Ġp ar
Ġ 8
Ġe m
a us
v ed
v e
ol d
f er
Ġfil m
er ic
o od
Ġab out
ub l
Ġl ater
in d
Ġth rough
oll ow
Ġen g
Ġrec ord
Ġb u
Ġa c
re at
Ġd ay
Ġf ollow
Ġre l
ter s
p h
Ġnor th
Ġe nd
a w
Ġa ct
we en
Ġ19 9
Ġbet ween
Ġm on
u g
Ġwor k
Ġde f
Ġh igh
ation al
ic k
Ġm a
Ġth an
on s
h ip
Ġre t
is ion
Ġse ason
c k
f t
Ġd o
Ġa pp
Ġn um
Ġs y
Ġl ar
ic t
Ġp os
Ġsu b
Ġpro du
ol og
Ġm in
Ġc ity
f ore
Ġ 00
Ġg u
Ġam eric
s s
ct ed
Ġsec ond
n ing
Ġm ov
Ġwhe re
Ġw rit
Ġf our
ie w
Ġspe c
ul ar
Ġsou th
Ġm ade
Ġre le
Ġb ro
Ġl oc
n e
Ġin c
e nd
am es
Ġ z
at ing
Ġp h
Ġp res
Ġbe fore
ur y
is hed
Ġwor ld
ik e
Ġc ap
Ġs ur
Ġ ent
Ġp ubl
Ġa ir
Ġb att
Ġar m
Ġal b
ro p
Ġse ver
Ġsu ch
iv ed
Ġsu pp
Ġs m
in t
in es
Ġe le
l l
Ġb ack
u al
he s
Ġthe se
ter n
Ġus ed
Ġc all
Ġ00 0
Ġ ed
ut e
Ġgen er
il y
Ġe p
Ġbo th
Ġd iv
Ġbe ing
i el
Ġalb um
Ġap pe
if ic
Ġf ound
Ġhis t
e ver
Ġ 0
an e
Ġser ies
i o
Ġ1 0
Ġb rit
Ġst e
ic s
Ġp ol
Ġ1 2
Ġsa id
Ġo p
Ġre p
Ġs ing
Ġyear s
Ġman y
Ġtr ans
Ġs et
an k
Ġde c
Ġc ount
Ġin v
Ġw ell
ain ed
Ġthe n
Ġad d
Ġhow ever
Ġnum ber
Ġd ire
Ġde p
Ġa ust
iv er
Ġb el
Ġs ch
Ġagain st
Ġl ong
Ġre v
Ġd r
Ġte am
Ġw ill
Ġin f
Ġhe ad
ot her
Ġs im
er t
ar s
in s
Ġsever al
Ġst ate
Ġl o
Ġst ud
if e
al e
t on
Ġp op
Ġre ce
Ġear ly
is ed
Ġm ill
vel op
Ġo per
aus e
in ce
Ġar t
Ġm il
t en
Ġc ro
Ġs l
Ġy ou
Ġt er
i er
Ġm ain
it s
ir d
Ġper form
Ġinclud ing
it ies
h n
Ġc re
od e
Ġde velop
Ġbec ame
Ġor ig
is e
y s
Ġd own
Ġkn own
Ġin st
j ect
Ġp ort
Ġun ited
id ent
ur ch
Ġdes c
f ul
u res
ver n
Ġ est
Ġep is
y l
Ġ1 6
Ġo b
ow er
a ir
Ġsh ip
Ġchar ac
or n
Ġm et
Ġm at
Ġ19 8
Ġst r
Ġcont in
Ġmus ic
Ġl and
em ent
Ġsh ow
iel d
Ġorig in
a z
Ġ19 4
el f
Ġn ov
th ough
Ġ1 5
Ġal though
Ġd ist
Ġgo vern
Ġcon st
on t
at her
Ġim p
Ġc rit
Ġ1 1
Ġfollow ing
er n
Ġl ike
u nd
Ġbe gan
Ġr un
a u
Ġal ong
t il
Ġle ad
Ġd id
Ġc ould
l ed
Ġth ough
Ġcomp an
Ġameric an
an n
Ġ1 7
Ġcomp le
u ch
Ġaust ral
i et
o ol
or k
oc k
Ġs ign
a red
Ġj un
Ġne ar
it t
Ġg er
Ġk e
Ġc are
at ive
Ġo ld
Ġcent ury
Ġbrit ish
em b
rou p
Ġop en
Ġpro v
u ed
d er
Ġ19 7
Ġdes ign
i red
Ġjo hn
Ġex p
u p
Ġ19 6
Ġp ers
Ġd if
Ġdis c
u ally
Ġg roup
Ġch r
ain s
ment s
Ġbec ause
iz ed
Ġc r
Ġs ix
o y
s on
Ġe ver
in ed
Ġb ar
Ġare a
Ġk ing
Ġun til
iv ers
Ġv ar
ak ing
Ġcall ed
Ġan y
Ġpe op
u c
i ent
Ġw est
Ġret urn
Ġw in
Ġf am
Ġin s
Ġn ational
ro w
Ġfe at
a h
Ġst ates
ul l
Ġma j
Ġk m
le y
Ġepis ode
an ge
Ġdesc rib
Ġoff ic
u red
Ġatt ack
Ġpre v
Ġd am
Ġst art
Ġch urch
Ġs ince
cc ess
g r
Ġp ass
Ġad v
Ġro ad
Ġ ir
Ġpeop le
el s
Ġa round
i am
k e
Ġa ug
Ġe l
g est
Ġhe l
ist s
id ed
am ed
Ġcomm and
Ġm od
Ġe ach
Ġj u
Ġan n
Ġmaj or
Ġwe e
Ġt y
Ġaug ust
Ġr a
o ot
Ġs ame
Ġwh at
ou se
Ġse pt
Ġst ar
ial ly
Ġr iver
Ġsupp ort
Ġsm all
ib le
x t
is m
ce pt
t y
ov e
Ġo cc
r ap
Ġo wn
Ġsept ember
Ġ1 3
Ġu se
Ġf ive
Ġe ff
Ġcon c
Ġm iss
an c
Ġser v
Ġrele ased
os ed
Ġ if
Ġan other
Ġmill ion
Ġj ust
Ġl ife
Ġst orm
Ġsu ccess
Ġb est
Ġm ed
Ġc amp
i um
Ġlar ge
ward s
Ġcompan y
Ġcl ass
et s
Ġsch ool
Ġger man
Ġbo ok
Ġg reat
Ġl a
ac ed
Ġt ri
Ġf ur
Ġc our
Ġl ine
Ġcon f
st em
Ġt em
u es
Ġto wn
Ġe ast
Ġe u
Ġw al
Ġpubl ic
Ġdire ct
en n
Ġg un
Ġcons id
Ġm id
Ġt urn
Ġp rom
Ġfin al
Ġcol le
ain ing
Ġcont ro
r on
Ġre port
Ġex t
ian s
v en
Ġ19 5
in a
il t
m s
p ed
Ġm ag
Ġg re
Ġcharac ter
Ġjun e
Ġn ow
Ġsy stem
Ġb re
ut ion
at s
Ġm o
Ġm y
Ġgovern ment
olog y
Ġw ay
iv es
rop ical
Ġd ue
Ġg l
Ġo ct
Ġ19 1
o ver
b le
Ġj an
Ġc or
ar k
Ġg e
Ġc he
Ġre st
av ing
Ġ1 4
Ġt it
Ġl ast
Ġl ate
in k
at ely
Ġm en
ur al
Ġsh ort
Ġev en
t ing
Ġis land
Ġ19 3
on y
Ġg ames
Ġhist ory
Ġm uch
u th
av y
Ġto ok
a e
Ġh um
ical ly
Ġmar k
Ġdiv ision
Ġbu ild
g er
Ġh al
u ary
ore d
Ġbl ack
Ġw ater
Ġch ild
Ġh ome
o ber
Ġst re
Ġde m
Ġan t
Ġn ame
Ġgener al
Ġver y
Ġ es
Ġoct ober
if ied
Ġpart ic
e p
Ġun ivers
ag ue
b all
Ġst ru
os s
b y
Ġv ide
Ġ rom
Ġwith in
Ġrece ived
l ish
Ġde ath
Ġtr ack
b e
Ġi i
Ġju ly
Ġto p
Ġpos ition
Ġrev iew
em pt
Ġplay ed
Ġcap t
as h
Ġre f
Ġs qu
Ġmar ch
Ġd el
Ġn ort
Ġm or
pe ct
Ġacc ord
Ġinc re
il ity
n er
iv ing
Ġar r
ant s
ion al
g et
im e
Ġv is
Ġar ch
Ġb as
ag ed
c ess
d om
Ġinter n
Ġs w
Ġbe g
Ġ2 5
op s
Ġjan uary
er v
Ġor gan
ag es
Ġdescrib ed
Ġt ropical
a im
l ing
Ġchr ist
Ġp ower
Ġth ird
id es
Ġinclud ed
r il
Ġsing le
iv ely
Ġk ill
Ġle g
Ġaccord ing
Ġp at
od y
Ġ3 0
Ġappe ar
Ġd est
Ġpers on
Ġw ind
Ġapp ro
ction s
Ġh ar
Ġw on
Ġh ur
Ġconst ru
he n
s ion
Ġev ent
Ġtim es
Ġch amp
Ġle ft
Ġv ict
Ġfam ily
ro te
p le
Ġatt empt
Ġall ow
ap an
Ġb ased
Ġap ril
it al
Ġpos s
. .
Ġde ce
Ġspec ies
Ġh and
Ġres p
Ġj apan
Ġmil it
Ġvide o
h am
Ġpl ace
Ġwh ite
Ġcl ub
Ġf ore
Ġl ist
Ġbu ilt
ent ly
Ġnov ember
Ġs k
Ġadd ition
Ġle ague
Ġn amed
a i
b o
om in
i od
Ġw rote
Ġ. ..
Ġex pl
Ġpro te
og rap
Ġfur ther
Ġ x
ak es
Ġbel ie
Ġprev ious
Ġte ch
Ġa v
Ġy ork
c hed
Ġth ose
Ġro ute
Ġdif fer
Ġb us
Ġl ight
Ġper iod
Ġe as
Ġcomm un
Ġbatt le
Ġne xt
te nd
an ces
Ġest ab
Ġst ory
Ġc ur
Ġh ouse
Ġf oot
Ġv al
ren ch
Ġ er
Ġc al
Ġcomm on
ra ft
m ber
Ġs oc
Ġp ost
Ġeu ro
Ġdece mber
n ess
ar ch
Ġl ed
pt ion
ul ation
m ed
Ġg od
Ġmon th
Ġre pl
p s
Ġs ent
pe nd
n a
Ġbatt al
ac hed
Ġfor ces
Ġan g
Ġre qu
Ġfor ce
en e
Ġre d
il ar
st er
Ġc ame
Ġarm y
os p
Ġs ay
Ġm ake
Ġst ill
m in
Ġs ide
Ġam ong
is on
Ġto ur
ard s
l er
Ġf rench
Ġorigin al
a ur
h y
Ġ19 2
Ġb and
en se
id ge
Ġwee k
g ed
Ġo pp
Ġv ill
he l
es e
Ġloc al
Ġa uth
Ġf ield
iv en
Ġr ad
Ġin it
le t
Ġmilit ary
s elf
ed er
Ġhist or
Ġeuro pe
Ġ1 00
Ġy oun
Ġsim ilar
Ġf ire
Ġm er
Ġst and
qu e
Ġeng land
Ġse e
at ter
Ġte le
Ġc le
Ġr ight
Ġs om
Ġc y
Ġt ro
Ġs ol
Ġ201 0
Ġs old
Ġto t
th ing
Ġpres ent
Ġl aw
Ġv iew
ak en
en ces
Ġre al
Ġj e
Ġf ar
at ure
Ġm emb
Ġl ow
Ġro le
m er
p or
Ġfe w
i ence
ber t
Ġunivers ity
Ġsu g
Ġl itt
Ġever y
Ġ200 8
Ġform er
Ġcontin ued
b s
Ġsu per
Ġro ck
Ġcro ss
Ġlitt le
Ġne ver
ent ion
Ġplay er
Ġmov ed
Ġc oun
Ġpl an
Ġwith out
Ġf ri
ot t
Ġcare er
Ġw om
Ġis s
Ġhe ld
Ġex per
Ġhal f
a ff
Ġpar k
s ide
Ġt re
ro ss
Ġ200 9
i ation
us s
er y
ut ed
g y
Ġeff ect
iss ion
Ġdef e
Ġpol it
i or
Ġp ri
Ġde b
Ġb ill
Ġf re
Ġor der
Ġco ver
Ġsong s
Ġc aus
el t
Ġres ult
Ġhur ric
as ter
Ġim port
Ġof ten
y al
re ad
Ġbe h
ap p
Ġass oc
iv al
Ġstr ong
Ġa ward
Ġn ight
Ġconsid ered
Ġinf l
im ent
Ġbr ig
Ġtr ad
Ġmat ch
Ġp it
Ġprodu ction
Ġday s
Ġcont r
Ġcount y
Ġmemb ers
Ġc ast
Ġt ake
Ġm ount
Ġcl aim
Ġpro ject
un g
en g
Ġl ess
Ġp ress
Ġdes p
Ġc at
Ġd et
Ġpo int
Ġchamp ions
Ġ2 1
Ġle vel
o b
y le
Ġpro f
Ġrep res
Ġhigh way
Ġ200 7
Ġsug gest
Ġpro p
Ġrele ase
b r
is ter
Ġob s
Ġf eder
Ġre fer
Ġ2 3
Ġcom b
c hes
Ġw at
re t
Ġh aving
Ġr ich
Ġ2 4
Ġch ang
m e
ot s
en c
Ġgo od
Ġfin d
Ġrecord ed
y ing
Ġl ost
Ġfor t
or ies
Ġst at
Ġintern ational
Ġdiffer ent
p ar
Ġsc ient
b ru
Ġf le
Ġwrit ten
Ġbattal ion
Ġhurric ane
Ġs al
es tern
Ġch art
n t
Ġ201 1
Ġtot al
in c
Ġl ove
Ġp a
Ġb ur
Ġlo ok
gr am
Ġor d
v es
Ġind e
au gh
Ġ2 2
ens ive
Ġs um
on es
ic o
Ġh y
Ġinv ol
Ġfri end
iz e
ri ed
Ġeng lish
Ġdesp ite
Ġfe bru
Ġauth or
Ġfebru ary
Ġdevelop ment
Ġs ound
it er
Ġ201 2
Ġpubl ished
Ġship s
Ġaustral ian
s h
Ġp al
Ġ200 6
v ision
Ġd on
Ġde cl
Ġcontro l
Ġ2 6
Ġcomp et
ress ion
Ġthrough out
er ing
Ġj ack
ic es
ra w
Ġman ag
Ġph il
Ġnort her
Ġcent ral
it ar
Ġpro t
Ġg old
Ġcount ry
r ing
Ġp ur
Ġpartic ular
Ġe ight
Ġf ree
Ġon ce
Ġsou ther
Ġe c
Ġear l
Ġserv ice
Ġnorther n
Ġt en
ro du
ne y
Ġcour t
Ġw ant
ver s
Ġmod ern
Ġtit le
Ġt ur
Ġv i
Ġsouther n
Ġe qu
Ġaustral ia
Ġrepres ent
Ġg ave
Ġbec ome
l ine
Ġg round
Ġs it
Ġc ult
Ġaf f
Ġreport ed
Ġdest ro
Ġs ite
is ing
Ġh am
Ġl im
Ġf t
Ġh a
ac es
Ġpop ular
Ġw ent
a x
Ġm ich
Ġro yal
Ġcan ad
Ġprodu ced
Ġpro gram
Ġh o
Ġto o
Ġl ive
Ġg iven
Ġthough t
Ġb all
Ġh or
se qu
Ġsign ific
Ġinfl u
c o
Ġver sion
at ic
Ġl ab
pl oy
Ġs on
Ġw ood
Ġchild ren
Ġl es
Ġre ad
Ġal ice
ition s
Ġsh ould
d ay
um ent
ab ly
Ġchampions hip
Ġw estern
Ġh our
Ġco ast
Ġstru ct
c raft
Ġac ross
Ġact iv
Ġ !
Ġc as
Ġm aking
Ġfr ont
Ġyoun g
Ġc iv
Ġ2 8
ren t
Ġcrit ic
iet y
Ġa way
x im
Ġa ge
Ġwrit ing
Ġ ill
Ġge or
Ġv e
ar a
ar n
Ġhe avy
Ġgr and
Ġc e
Ġtele vision
Ġm ass
Ġhum an
c he
Ġn et
Ġaf ric
Ġg et
it her
Ġrom an
Ġd ou
Ġsqu ad
e ad
us ed
ert ain
Ġreturn ed
il le
Ġinclud e
Ġeas tern
Ġt or
Ġ2 7
Ġse en
Ġmil es
Ġ5 0
Ġkn ow
Ġcon v
Ġpr im
Ġpres ident
Ġse ven
Ġus ing
Ġperform ance
Ġf ail
Ġwill iam
Ġciv il
Ġ201 3
Ġconstru ction
a pe
Ġh ill
ant ry
at or
am a
ad es
Ġst ated
iz ation
Ġdevelop ed
Ġbuild ing
Ġp ut
Ġar g
Ġbro ad
Ġpop ulation
s hip
Ġf ight
Ġre ached
Ġsu ff
Ġtech n
f ic
Ġv o
Ġdestro y
Ġsignific ant
Ġp ra
am b
Ġme an
Ġb urn
Ġameric a
Ġjapan ese
f ord
re w
Ġb ase
Ġsu n
Ġp ain
Ġm m
Ġnew s
Ġcent er
end ed
Ġspec ial
Ġestab l
i us
Ġf ull
Ġinst ead
Ġann oun
Ġocc ur
Ġf em
Ġb ody
Ġh ig
pl ay
Ġf act
Ġsur v
in ess
Ġoffic ial
Ġ2 9
Ġf elt
Ġde v
Ġinf antry
y n
in ted
Ġwor ks
Ġbeg in
Ġf all
Ġ19 0
Ġgun s
g round
Ġf if
Ġf ather
Ġm al
c om
Ġc ou
Ġh om
av es
Ġhim self
Ġs an
Ġl ond
ut es
Ġestabl ished
i ers
Ġdisc over
m ost
Ġc ir
a ign
Ġr ange
Ġtr av
Ġfe et
olog ical
Ġcamp aign
Ġt al
ree k
Ġform ed
Ġloc ated
Ġstre et
Ġlond on
a f
Ġd av
Ġare as
Ġne ed
Ġint rodu
Ġvar ious
g es
Ġv ol
Ġimport ant
Ġo l
Ġf un
Ġplay ers
Ġup on
Ġ ide
Ġd u
Ġind ust
Ġgu itar
Ġir on
re st
Ġbrig ade
Ġm ix
Ġhe ro
Ġf ac
ist ed
Ġfoot ball
Ġf ig
Ġeng ine
Ġorigin ally
w ork
Ġst ri
Ġro und
Ġkill ed
in ation
en ed
Ġl et
Ġsuccess ful
al th
Ġd ied
Ġnot ed
Ġpo em
Ġm i
o x
o on
Ġw all
Ġst yle
Ġt est
er c
Ġdo es
yl an
Ġm ot
us h
Ġd ylan
Ġcol on
ac y
Ġset t
Ġw ord
Ġrel ig
al d
Ġs n
it ive
ri pt
Ġstart ed
l o
Ġp en
Ġking dom
r ation
ie f
Ġdep art
Ġty p
om b
f ield
g ress
id s
Ġperform ed
Ġtro ops
Ġm em
Ġn at
Ġinter est
ri e
Ġother s
ric k
Ġrem ained
it ing
ip p
Ġ3 1
Ġi re
Ġele ct
os aur
m a
Ġh old
f all
it ted
id ence
Ġcaus ed
m p
Ġpolit ical
Ġv ir
Ġprom ot
og n
Ġire land
ort s
Ġreg ion
c her
Ġl ang
Ġj ames
Ġev ents
Ġf av
on om
Ġh ol
Ġpe ak
Ġqu e
Ġn on
Ġent ire
in o
Ġinde pend
e c
Ġl y
Ġ200 5
re am
Ġh on
Ġag re
Ġcrit ics
c il
Ġse a
Ġcir c
Ġb i
Ġh ot
Ġab le
Ġprof ess
Ġcomm ission
i ated
Ġa ud
Ġm ad
Ġe y
Ġbeh ind
in ts
Ġdirect or
Ġadd ed
er o
Ġm other
Ġto m
Ġcon d
ri es
Ġg row
Ġear th
Ġair craft
as k
am ent
Ġser ved
Ġfollow ed
Ġevent ually
Ġb orn
Ġdam age
Ġrel ations
Ġre b
Ġoper ations
Ġcre ated
Ġest im
Ġb ow
en ced
ct or
Ġle ast
Ġcharac ters
b or
as ing
Ġ4 0
Ġme et
Ġbro wn
Ġtrad ition
Ġr ul
Ġat l
Ġb ird
Ġd en
Ġh it
Ġhe n
Ġan im
Ġdif fic
Ġmag az
Ġdiffic ult
Ġs il
m ar
Ġp red
Ġse le
ant ic
Ġen c
Ġbec om
Ġ18 9
Ġsa w
Ġs at
an a
ent h
Ġcomple ted
Ġd er
Ġl oss
Ġal most
Ġa ction
Ġc up
Ġwom en
l ess
Ġin n
Ġcom ment
Ġsub sequ
Ġhel p
way s
a el
Ġc er
Ġn ar
Ġr ail
Ġappe ared
Ġcy cl
Ġannoun ced
Ġto get
Ġl i
Ġ200 4
Ġprodu c
Ġtoget her
Ġfour th
z e
Ġ ident
Ġo d
Ġh ard
Ġpart y
Ġcol l
rough t
Ġc op
Ġpro cess
Ġtrans port
g o
Ġd i
amp le
Ġmonth s
Ġc ase
Ġh all
Ġn av
Ġu l
iv id
Ġch ap
ric t
Ġfle et
al y
Ġl os
Ġre du
Ġg al
d le
Ġl ik
Ġoper ation
Ġst ars
i que
Ġto wards
if f
ough t
uc le
Ġr u
Ġr ac
Ġcl ose
ect ed
Ġnov el
Ġa ver
Ġs our
Ġf a
Ġv oc
Ġb ay
Ġl ack
od es
Ġfeat ures
d en
m ing
st on
Ġdec ided
Ġb er
Ġm cc
al ity
ress ed
Ġb ig
Ġcom e
em y
Ġ201 5
c ent
Ġm ur
r ay
Ġre se
Ġst ation
Ġr ain
Ġind ivid
Ġst age
Ġ200 3
Ġacc om
Ġse x
Ġso on
Ġje w
Ġt aken
Ġb ir
Ġe ither
Ġr ather
Ġinv est
ap h
enc y
Ġn y
em ents
Ġrec ogn
Ġwind s
t im
Ġc ut
Ġr ank
Ġplay ing
s u
Ġt rib
Ġn avy
Ġfl ight
Ġbus iness
Ġ18 8
Ġoff ice
w h
Ġin form
n ed
u ck
he ast
Ġw ife
Ġreg iment
Ġscient ology
Ġex c
Ġme x
Ġm c
Ġj our
Ġfore st
Ġm ach
Ġcl os
Ġapp o
Ġr ace
Ġz e
Ġimp ro
ign ed
act ion
Ġmus e
Ġa wards
Ġse par
Ġqu ar
Ġcur rent
c ast
Ġh ost
Ġpro ble
Ġgo al
t o
ach ing
Ġdep ression
Ġes c
Ġlead ing
at ors
ist ic
Ġter rit
Ġla un
Ġdav id
a ut
Ġc reat
Ġst op
ap s
Ġfr ance
Ġcre w
Ġt reat
Ġm ac
ap er
Ġty pe
ic a
ell ing
Ġsc ored
ol ution
Ġfl ood
Ġout side
Ġinter v
Ġun its
Ġad m
Ġwal es
Ġlang u
Ġc ru
Ġm ember
Ġn ucle
Ġ18 5
at a
Ġan c
k ing
Ġw id
Ġc ost
Ġm ater
ce ed
Ġsh ot
Ġem b
Ġmov e
Ġa ch
Ġf ace
Ġp ast
Ġ3 5
Ġac cept
med i
ot a
pe c
Ġind ian
Ġfeat ured
ograp hy
Ġmagaz ine
Ġs en
Ġc reek
Ġd omin
Ġfin ished
g in
w est
Ġse em
Ġdire cted
an ch
Ġex ample
Ġrecord s
o le
Ġf und
Ġcon n
Ġpo et
Ġresp ons
Ġcle ar
Ġb rought
Ġst one
ul ly
Ġres pect
Ġme as
Ġcoun cil
Ġrelations hip
ur b
Ġk il
ud e
Ġbelie ved
Ġf oc
Ġun ion
Ġto w
Ġint ens
Ġcomm erc
w ood
Ġp ot
Ġ5 00
Ġopen ing
Ġwee ks
Ġsquad ron
Ġp ac
Ġr ap
Ġro bert
Ġpre m
Ġele ments
Ġgener ally
Ġcare y
Ġopen ed
he ad
Ġc ard
ing ton
Ġreg ular
k ed
u ation
Ġc ell
Ġcon du
Ġpl aced
Ġab ove
Ġrecord ing
Ġke y
tend ed
u gh
Ġb ra
Ġf ell
Ġst ren
Ġse qu
Ġpro b
Ġlar gest
Ġmid dle
re g
Ġc am
Ġo x
Ġpo ints
Ġinit ially
Ġearl ier
m en
Ġm ph
Ġex ec
Ġreg ard
Ġwork ing
im es
Ġ18 6
Ġsay ing
v ille
Ġprov ided
Ġvict ory
bo ard
l ic
he re
Ġm ust
Ġd raw
ent ial
th od
Ġind ic
Ġpa ul
al and
id a
Ġpol ice
n es
Ġm ult
Ġarch ae
Ġappear ance
Ġer a
Ġhour s
Ġb al
Ġf ly
Ġhe av
Ġch o
ish ing
Ġfl or
Ġsec ret
Ġstren g
he st
Ġth om
Ġth ink
Ġpl at
Ġpr iv
Ġstud io
Ġdesign ed
Ġrad io
Ġwant ed
Ġs us
um b
Ġqu ick
Ġrep ubl
Ġn ine
Ġro se
Ġcomp os
Ġposs ible
Ġpri or
Ġmuse um
u k
Ġ q
Ġprevious ly
Ġp et
Ġl ower
Ġj ud
Ġsp an
Ġac ad
Ġant i
Ġinvol ved
f or
p an
an ks
as ion
ro s
Ġcon dom
Ġde ter
Ġallow ed
Ġvill age
m y
id ing
Ġy ards
Ġne g
Ġed uc
Ġassoc iation
Ġre ve
Ġsp ace
Ġpar l
g g
Ġro om
Ġem ploy
ict ion
Ġcommun ity
Ġgeor ge
o o
Ġl at
Ġre ason
Ġde al
Ġpr act
Ġeurope an
Ġach ie
o res
er ous
Ġl eng
Ġg ir
Ġse ction
Ġv iet
Ġres ul
Ġbre ak
l s
Ġex ist
e y
on st
Ġpo or
Ġrepl aced
u el
Ġp ie
Ġang el
Ġmanag er
Ġparticular ly
Ġa th
Ġbl ue
Ġsy m
Ġbro ther
Ġec onom
r ated
Ġsc re
Ġsa f
Ġmin or
Ġsum mer
Ġthe at
Ġr h
Ġtr aining
Ġjo ined
Ġw il
Ġh ous
Ġdis s
Ġvi ol
t ies
ur g
Ġk ore
oun ted
Ġfe el
Ġrem ov
Ġins p
Ġestim ated
n ar
Ġn omin
Ġst ay
Ġam b
Ġcolle ge
Ġbegin ning
Ġparl iam
Ġm art
Ġth reat
Ġcomm it
Ġ18 7
Ġ201 4
Ġstud y
Ġcommand er
v ing
Ġin j
Ġmet res
Ġchrist ian
Ġrepubl ic
or ing
Ġd om
Ġh osp
Ġg ar
Ġfor ced
Ġde ad
Ġfem ale
r am
Ġn orm
ul a
Ġ200 1
ines e
s el
Ġ200 0
Ġev idence
Ġtrans fer
ann ed
Ġcommerc ial
i h
Ġm r
Ġch inese
Ġ197 0
Ġa ut
qu ar
Ġsc ene
Ġpra ised
Ġleng th
Ġl ines
ain t
ag o
Ġbr idge
Ġincre ased
Ġav ail
Ġmater ial
Ġparliam ent
u ter
Ġl iter
Ġwith d
Ġv en
Ġwork ed
Ġsom et
d own
it a
Ġbe y
Ġcrit ical
Ġord ered
Ġt aking
st e
ad ed
Ġst aff
Ġch ange
ok e
Ġgo ing
Ġmain t
it z
Ġh app
ell ed
Ġze aland
n el
Ġm el
Ġsc en
Ġim medi
Ġcap ital
Ġback ground
Ġinst it
Ġturn ed
Ġsoc ial
Ġbrit ain
Ġf ut
Ġm os
Ġstruct ure
Ġs am
an ia
le ment
im in
Ġy our
Ġwhe el
Ġsoc iety
Ġmich ael
Ġquar ter
p r
u z
Ġr uss
Ġits elf
Ġrem ains
Ġsur f
Ġocc up
v al
Ġm ary
Ġl ad
Ġre n
Ġass ist
Ġem p
Ġ199 0
Ġsub st
Ġles nar
Ġatl antic
Ġmex ico
Ġy ard
k n
k y
Ġo s
or ial
Ġd oc
Ġ4 5
ib ility
one y
Ġbet ter
Ġappro xim
Ġhig hest
Ġpac ific
Ġwh om
Ġmount ain
o ff
Ġhe art
Ġpartic ip
Ġinterv iew
Ġf ood
ar ing
read y
h ic
h ib
Ġg ot
cl us
pp er
Ġ6 0
Ġaver age
c a
Ġde ep
ak er
Ġcont rib
Ġrece ption
Ġsl ow
Ġmed ia
Ġp ay
Ġd ro
Ġpl ot
ific ation
Ġfeder er
Ġhor se
Ġm ight
ar ily
Ġn ative
Ġass emb
Ġsub ject
Ġtem ple
Ġflor ida
Ġd ark
ul f
op h
Ġex cept
Ġen ough
Ġsur round
Ġincre asing
Ġp un
Ġn ames
Ġ200 2
Ġsign ed
Ġsold iers
r d
ut ive
ess ion
Ġdis p
Ġph ys
Ġarr ived
Ġclaim ed
Ġrich ard
Ġtrav el
Ġrelig ious
Ġrese arch
r ison
Ġpro per
pe cted
Ġun c
ord an
Ġad min
Ġob ject
por ary
Ġvo ice
Ġw ild
Ġc ertain
Ġl ou
Ġpart s
Ġcomple te
Ġreview s
Ġg ive
st and
Ġal ready
Ġover all
Ġdam aged
b and
t ar
er ved
Ġb ad
Ġh un
Ġto ld
Ġdepart ment
Ġavail able
h a
Ġnear ly
Ġpass ed
Ġindust ry
Ġthom as
Ġs ize
Ġto day
Ġj ordan
ri an
Ġim m
Ġgre en
Ġdefe ated
o id
Ġw ide
Ġo ur
Ġd ig
Ġro b
ab it
Ġprob ably
it es
Ġim ag
Ġter m
Ġdet ail
Ġsomet imes
g a
Ġo t
Ġd ate
Ġrun ning
Ġaddition al
Ġestab lish
Ġol iv
p ing
x as
Ġu k
Ġr ang
Ġde g
ul ated
gy pt
n al
o f
ver t
Ġwh ose
Ġ3 6
Ġcont em
Ġque en
Ġapproxim ately
i i
Ġt ar
ar ies
Ġd ut
Ġe gypt
Ġfor ward
Ġab s
Ġcar ol
Ġcanad a
Ġappo inted
k et
Ġp le
al ed
Ġl atter
Ġbo ard
Ġgr ad
Ġcontr act
Ġlangu age
Ġd an
ate g
Ġbo y
Ġ7 5
Ġqu est
w or
ers on
Ġex am
Ġ196 0
Ġrequ ired
Ġdeb ut
Ġb od
is c
il a
Ġu pper
un e
Ġfight ing
Ġviet n
in ing
Ġm om
Ġm ort
ou ri
Ġn in
ri ption
Ġ3 8
Ġ18 3
Ġhead quar
Ġcomple t
ste in
Ġb en
Ġl ay
Ġsc ott
Ġwin ning
Ġprev ent
Ġhen ry
Ġt ell
Ġto uch
Ġhe re
Ġse m
Ġair port
Ġgroup s
Ġsubsequ ently
as es
Ġun it
fer ence
Ġwrit er
Ġmiss ouri
Ġprot est
b ack
Ġl ake
ur ity
Ġrem aining
Ġmon t
Ġath let
Ġc red
ab ility
Ġun l
Ġdec ision
Ġsuggest ed
Ġlim ited
Ġb ab
Ġf er
Ġth us
se c
Ġvict or
Ġintrodu ced
at ory
Ġm ale
Ġgo als
Ġlar ger
Ġmov ing
Ġcomple x
Ġobs erv
k i
Ġb ord
or ation
Ġsc ore
Ġdis play
Ġend ed
Ġshow s
Ġwom an
Ġb ul
Ġr an
ch ing
Ġdist rict
Ġes pec
hen s
Ġiss ue
Ġfail ed
Ġfif th
o or
Ġd augh
il ities
et t
Ġro ll
Ġcapt ain
Ġn ero
um e
Ġy et
Ġafric a
ol ic
ct s
Ġcent re
Ġvis it
Ġfriend s
Ġnat ural
Ġespec ially
g l
j e
on se
Ġb omb
um ents
Ġtw ent
Ġchar les
Ġrem ain
Ġsupport ed
Ġcapt ured
Ġnav al
i res
Ġd yn
Ġem per
Ġmin utes
Ġchang es
Ġinvest ig
i est
Ġc orn
Ġp an
ill ery
Ġind ia
Ġmix ed
Ġ ?
Ġa st
ar i
Ġal ways
Ġsp ent
Ġpe ter
Ġ8 0
Ġart illery
Ġgerman y
Ġdiscover ed
Ġspan ish
b ers
f ect
on ic
Ġh op
id ents
ap t
ab b
Ġint ended
Ġir ish
Ġconc ert
Ġresp onse
Ġdestroy ed
Ġfut ure
b c
l or
Ġs elf
Ġbl ood
Ġnet work
Ġc a
is es
Ġbe at
Ġ198 0
Ġrun s
Ġcoun ter
Ġly ric
k er
ad s
Ġtr aff
Ġsc ript
Ġfin ally
Ġsqu are
Ġfeder al
Ġo ce
Ġhe alth
ow s
Ġch ic
Ġus ually
Ġgr ant
Ġgu ard
Ġmor ning
Ġu nd
ay s
Ġnot es
Ġinclud es
Ġsa il
Ġteam s
Ġfeat ure
Ġfre qu
Ġprofess ional
y er
Ġf ox
ou th
Ġst ories
rie f
Ġm ention
Ġ18 4
Ġmost ly
Ġem er
Ġpos itive
Ġprov ide
Ġsmall er
Ġshort ly
Ġcanad ian
Ġbroad cast
Ġp are
Ġl ink
Ġar ab
ish op
pl es
Ġfr ank
Ġfilm s
Ġke ep
Ġperson al
Ġfav or
Ġagre ed
Ġul tim
Ġw it
Ġp air
pp ed
Ġp enn
Ġm ounted
Ġmin ute
Ġold ham
Ġbecom ing
Ġscre en
k en
Ġt ax
it ect
Ġl iving
Ġcom ed
Ġro w
Ġmus ical
Ġpress ure
g ar
m ond
Ġsch ol
Ġstud ents
Ġcor ps
Ġarch itect
Ġeduc ation
Ġo ly
Ġl ord
Ġl og
Ġj in
Ġloc ation
Ġposition s
Ġrequ est
Ġheadquar ters
Ġoly mp
g en
Ġb atter
Ġin h
Ġad op
hed ral
Ġshe ll
Ġspe ed
Ġcar ried
Ġmov ement
ann a
Ġtem per
Ġii i
Ġbir th
Ġm akes
Ġm oney
is er
ac ted
Ġsh own
Ġopp os
Ġide a
Ġlik ely
Ġpriv ate
r ack
u an
ch ange
and on
te en
Ġcan n
Ġver s
Ġequ ip
Ġcult ure
Ġprim ary
Ġc m
Ġth ings
Ġas ked
ig an
Ġrap id
Ġt v
Ġs out
Ġc ath
Ġd oll
Ġcon clud
um n
Ġbo x
Ġ199 9
Ġlar g
osaur us
at ively
Ġr am
Ġv ot
Ġch ina
Ġ7 0
Ġcompan ies
Ġeffect s
Ġdefe at
Ġproble ms
sel ves
Ġadmin ist
Ġw ound
Ġcon cept
Ġch ief
Ġtr ade
Ġrel ated
Ġbel ow
Ġoffic ers
Ġconc ern
Ġsurf ace
Ġoliv ier
l ight
Ġg all
Ġj er
ag on
Ġsh oot
Ġper cent
Ġcol or
Ġbook s
Ġcas ual
Ġce le
Ġquick ly
Ġemp ire
c ing
i os
Ġn ations
Ġn ature
Ġim age
Ġcons ist
Ġ199 5
Ġbill board
Ġcat hedral
Ġrefer red
Ġrank ed
Ġr if
Ġr idge
Ġle aving
Ġpr inc
Ġjew ish
Ġhosp ital
r or
u nder
u als
w ell
Ġt ons
in ct
Ġs and
Ġc ad
Ġb rief
Ġp il
Ġre in
Ġbe aut
Ġse v
Ġ3 2
Ġwho le
Ġent ered
Ġvir gin
Ġtraff ic
n ers
Ġa le
Ġme thod
Ġbr ing
Ġey e
Ġmach ine
Ġterrit ory
Ġemper or
m as
ic ted
ri a
Ġnum bers
Ġele ction
Ġarr ang
Ġcal if
Ġexper ience
Ġp ow
Ġh aw
Ġ4 00
Ġconst ant
Ġdisc uss
Ġadv ance
Ġmajor ity
Ġcour se
Ġcycl one
Ġlyric s
g ing
h ou
Ġc ause
Ġb on
Ġl if
Ġth ick
Ġit al
Ġpl ans
ra el
Ġconst it
Ġins ide
Ġconstru cted
Ġassoc iated
Ġoce an
c ar
Ġm ic
Ġen v
Ġman ila
Ġcalif orn
b a
is ions
Ġh us
Ġ3 3
Ġco ach
Ġthem selves
Ġ9 0
Ġdist rib
Ġconsid er
Ġstat us
Ġlaun ched
Ġlarg ely
n y
v est
om et
ri age
Ġwhe ther
Ġass igned
Ġattack s
Ġstart ing
Ġinflu ence
Ġsuff ered
Ġbird s
Ġtow er
Ġb ond
Ġf ans
Ġch all
and er
Ġbl ock
Ġdef end
Ġattack ed
Ġanc ient
Ġscen es
d s
Ġs aint
en on
Ġm aster
Ġg ro
Ġu t
Ġbatt les
itt ing
Ġserv ices
Ġ195 0
Ġchang ed
Ġlat in
m on
Ġ ign
Ġr are
Ġatt r
Ġsome thing
Ġsl ight
Ġgovern or
Ġgreat est
Ġoccur red
p re
s en
Ġb ank
Ġis rael
Ġcon ference
Ġle ave
Ġle arn
Ġlong er
Ġstud ies
Ġcolle ction
Ġcontro ll
Ġref le
e ter
er a
Ġf est
Ġp urch
Ġd ed
Ġh air
Ġj im
Ġv an
Ġcont ains
Ġinter se
Ġbr ad
Ġcre ate
Ġmark et
Ġd one
Ġto urn
Ġre ach
Ġg ard
pt ed
Ġsc ience
Ġab andon
Ġ199 8
Ġdef ence
Ġgre ater
Ġbre ed
Ġcommit te
Ġwheel er
e th
Ġ ess
Ġa w
Ġh u
Ġl ived
Ġj ose
oc r
oc ks
Ġsc hed
Ġform s
Ġacc ess
Ġed ge
Ġart ist
Ġincre ase
Ġprop osed
Ġcomb at
Ġdou ble
Ġcontem porary
Ġw ing
Ġre ar
ac hes
Ġst ra
Ġk r
Ġ3 00
Ġsc ul
Ġser ious
Ġste p
Ġlist ed
Ġdeter m
Ġcele br
v ens
he t
Ġw r
Ġf ru
Ġj am
Ġend ing
Ġschool s
Ġorgan ization
Ġafric an
Ġimmedi ately
Ġt akes
an ced
Ġh und
Ġl ie
Ġan al
Ġcomp ared
Ġsp orts
land s
Ġsec urity
Ġappe ars
Ġcro at
Ġ194 0
Ġhund red
Ġt enn
Ġb ound
Ġcon ver
Ġpro gress
Ġme ant
Ġ201 6
Ġcro w
Ġbuild ings
Ġmean ing
Ġcaliforn ia
e e
Ġb an
ac ing
Ġen s
Ġnort heast
Ġremov ed
Ġdaugh ter
l in
it or
Ġk ind
ort un
Ġsh a
Ġpl anned
ous ly
Ġsy n
Ġter ms
Ġsix th
Ġoffic er
Ġcompet ition
Ġindivid ual
Ġinform ation
a ult
Ġs ov
on c
Ġp ian
Ġd um
Ġd ream
ic ated
le g
Ġro ss
all ed
Ġdis m
Ġph ot
Ġpol ic
he m
Ġw a
Ġf ant
Ġp ict
ce nd
Ġac qu
Ġste vens
Ġdr um
Ġann ual
Ġ193 0
Ġnews p
Ġtradition al
er ve
er gy
Ġb ud
Ġd ra
Ġre ally
Ġr at
ul u
Ġun able
Ġperform ances
Ġk h
Ġdef ense
Ġland s
Ġwat ers
Ġindepend ent
Ġm as
om m
Ġwe ap
Ġpe ace
Ġthem e
Ġent er
Ġinit ial
Ġtre es
augh t
Ġmich igan
Ġsele cted
Ġrac hel
z y
Ġf ast
Ġd j
um ed
if y
Ġmag n
Ġaward ed
Ġfoc us
on na
if a
Ġsp ring
Ġrec over
Ġim per
Ġmiss ion
d e
u f
it ation
Ġpl ant
Ġtr ue
oun ts
Ġcl im
Ġhead s
Ġvar iety
Ġtrack s
Ġval ley
Ġjour nal
Ġc ra
Ġp ound
ter ed
Ġnum erous
Ġsing les
Ġrev olution
Ġepis odes
Ġprom in
Ġgod s
Ġstand ard
Ġiss ued
Ġfig ure
Ġaccom pan
b our
Ġt ail
ro om
ell ig
Ġsp ir
Ġimp act
Ġisland s
Ġmark ed
Ġmur der
Ġcondu cted
Ġstreng th
Ġc and
Ġo w
al es
Ġg iving
Ġj ane
Ġv ia
Ġnorth west
Ġra ised
Ġcover ed
Ġcomment ed
Ġtwent y
Ġcasual ties
Ġa er
Ġw rest
Ġb or
Ġp ath
Ġp ick
Ġth r
Ġg i
Ġfin anc
ail y
Ġfr anc
Ġpres ence
Ġconf l
Ġmanag ement
k an
Ġo m
Ġb ol
Ġre ign
Ġth ir
Ġg a
and s
Ġgr aph
Ġmon ument
Ġma xim
Ġcontro vers
Ġbeg ins
Ġhand s
Ġt ay
Ġd aily
ch an
Ġtr ail
Ġher self
ru ction
Ġ4 2
Ġpre p
Ġcar ry
Ġmet al
Ġattempt ed
Ġexper i
Ġcommitte e
b ury
Ġs av
it ude
Ġal i
et r
Ġ3 7
Ġint ellig
Ġact or
Ġmat ches
Ġdirect ly
Ġlook ing
Ġgir l
Ġlad y
Ġoff ered
olog ist
Ġmin ister
Ġport ray
Ġrespons ible
Ġwas h
Ġan th
um p
ist ics
Ġcomp osed
Ġwe aken
Ġear ned
ve y
Ġ199 3
Ġport ug
Ġnear by
Ġbow l
Ġru le
Ġmult ip
Ġhus band
Ġth row
iv a
ap ed
ip al
Ġte xas
Ġus es
Ġmar ried
Ġalbum s
Ġhel ped
Ġattempt s
Ġcomb ined
u ing
Ġ3 9
Ġev ac
Ġfl ow
Ġacc ount
Ġspec ific
Ġcro wn
for ce
f l
ber g
ell ow
Ġcl osed
Ġ4 7
Ġ199 6
Ġsim p
Ġvill a
Ġha ifa
che ster
Ġsour ce
Ġtheat re
Ġbab y
Ġchic ago
Ġcath olic
d ing
y a
ad o
ct ing
et ic
Ġk ick
Ġpo ly
Ġ199 7
Ġchrist mas
Ġproduc er
Ġinsp ired
Ġtay lor
v ement
Ġp ag
Ġm ile
Ġh orn
Ġn ation
ad a
and ed
Ġne cess
Ġar ts
Ġoff ensive
Ġact ive
Ġlead ers
Ġx enon
Ġbord er
i ate
Ġb at
Ġst ad
Ġse arch
Ġch ann
Ġro ugh
Ġbo ats
ib ly
Ġpre c
Ġhigh ly
Ġwrit ers
Ġcontin ue
ony m
p ool
Ġs ides
Ġb ass
om an
ol k
Ġr ate
ri al
Ġcol d
Ġright s
Ġphil ipp
Ġfig ures
p a
Ġs ac
Ġs ir
Ġs we
is l
Ġl iver
Ġat tend
Ġpl aces
Ġsit uation
Ġt ask
Ġm un
is ation
Ġth under
ur s
Ġr hy
Ġadv ant
Ġsk y
Ġhistor ical
Ġp ul
Ġsc ot
ond yl
Ġcons erv
Ġext r
Ġmo le
Ġche m
Ġhig her
Ġgal vest
Ġresul ted
Ġhous es
Ġital ian
Ġgalvest on
Ġcom ing
Ġ199 1
Ġmov ie
Ġter min
Ġ15 0
Ġext re
Ġpur p
Ġneed ed
Ġword s
Ġvoc als
Ġdoc ument
Ġb ed
Ġf ill
Ġp aper
an es
Ġl ib
Ġal tern
Ġex tended
Ġstru ck
Ġpower ful
Ġallow ing
Ġgeor g
Ġassemb ly
Ġtouch down
Ġenv ir
Ġd a
ur ies
Ġde pend
ag ing
Ġleg isl
osp ondyl
Ġmem orial
Ġaud ience
Ġcond itions
Ġintens ity
Ġquest ion
Ġmom ent
Ġt on
at ops
Ġde ploy
Ġen j
Ġbo b
Ġper fect
Ġcan c
Ġchar l
Ġrel ief
Ġed ition
Ġfore ign
ograp h
Ġhy d
Ġmeet ing
Ġvoc al
Ġrain fall
Ġb ott
en ing
Ġst ating
ant a
Ġrec ent
Ġres idents
Ġme ans
Ġpre par
Ġinc or
yl v
Ġref used
Ġhistor ic
Ġhon or
Ġultim ately
Ġcomed y
Ġsov iet
e f
Ġ id
Ġth ing
Ġbe ach
Ġy ellow
Ġmar riage
Ġ6 5
Ġgen us
Ġ199 4
Ġarm ed
Ġtrans l
Ġdist ance
Ġexp ress
Ġappro ach
Ġjack son
Ġcarol ina
Ġc rick
Ġh abit
ol f
ru ct
Ġsing er
Ġfam il
Ġconf ir
Ġiron cl
Ġheav ily
Ġacad emy
Ġsym b
Ġscul pt
l im
Ġp s
Ġm ind
Ġd v
am s
Ġ18 0
iz ing
Ġbr anch
Ġpar is
Ġperson nel
Ġcast le
Ġsepar ate
Ġot t
Ġbod ies
Ġenvir on
Ġcomp l
Ġte xt
Ġ5 1
Ġent ertain
Ġsm ith
Ġpol ish
Ġlevel s
Ġcult ural
Ġsaf e
Ġslight ly
Ġjose ph
b urg
Ġb id
Ġb ene
Ġm ess
Ġm outh
Ġn ix
Ġre pe
Ġsu st
Ġ7 6
Ġcount ries
Ġadv ent
Ġdecl ared
Ġve hic
Ġburn s
Ġstri ke
Ġcondom s
Ġale x
Ġanal ys
e es
Ġa ven
Ġo il
an o
Ġg h
Ġsu c
Ġres c
Ġpr ison
Ġbar b
Ġresp ond
Ġpresent ed
Ġpeak ed
Ġsil ver
Ġredu ced
Ġrespect ively
Ġpian o
Ġstad ium
h old
h ouse
t he
Ġs ister
ic ient
Ġas pect
Ġr ug
us e
us hed
Ġqu al
Ġopp ortun
Ġlab or
Ġsn ow
stand ing
Ġimper ial
ylv ania
g s
u ated
in y
Ġc ert
Ġf ow
at ives
Ġm is
Ġ4 4
Ġ199 2
Ġinc hes
Ġele v
Ġprote ins
Ġcontr ast
Ġactiv ity
Ġcomplet ely
Ġpare n
Ġpenn s
Ġn ick
Ġr is
Ġr ay
Ġpr ince
Ġform ation
Ġloc k
Ġdire ction
Ġsom ers
Ġo h
ens ion
Ġart ists
Ġalong side
Ġel se
Ġappear ances
Ġactiv ities
Ġwound ed
Ġt un
in al
Ġf air
Ġto ward
Ġre action
Ġth ous
Ġal kan
ill a
Ġex pected
Ġsp ort
Ġthem es
Ġchr is
Ġty ph
Ġeff orts
Ġcop ies
Ġsex ual
Ġwid ely
Ġfest ival
t a
Ġre ject
st one
ol s
Ġ3 4
Ġrem ix
ath an
Ġact ually
Ġbro ken
Ġcontin ues
Ġiss ues
Ġconclud ed
Ġliver pool
i ber
r ain
r ance
Ġc ore
Ġf res
Ġf aced
an as
Ġv ess
av en
if t
ab or
Ġtr y
Ġ4 8
Ġjo b
Ġsub s
Ġgu est
Ġreport s
ped o
Ġbas ket
Ġsom al
Ġtor pedo
Ġtransfer red
Ġdyn ast
Ġvirgin ia
Ġfru it
Ġwash ington
Ġnix on
d a
k a
t rack
il s
Ġman aged
Ġtri ed
Ġbus ch
wh ile
Ġenj oy
Ġsomers et
b re
u ff
Ġs or
Ġc ab
Ġb ishop
Ġf ish
Ġl ot
ou l
Ġn est
Ġj ul
em ic
Ġex hib
Ġdis e
are nt
Ġaustral ians
Ġleg al
Ġsay s
Ġsound track
Ġprim arily
Ġadm ir
Ġwithd raw
Ġcand id
Ġpenns ylvania
Ġt a
he w
Ġb ell
Ġd od
ro ll
Ġr ing
Ġen ergy
Ġsp ain
Ġcall ing
Ġstru gg
Ġpat tern
Ġofficial s
Ġkore an
Ġa ctions
an i
Ġre form
ent ed
Ġj os
ul ations
Ġbo at
Ġthere fore
Ġdesign ated
Ġdescrib es
Ġeff ort
Ġdem ocr
Ġsequ ence
Ġmos ley
Ġlou is
Ġvietn am
Ġtourn ament
Ġparen ts
b on
g reg
h ood
w rit
Ġa id
Ġs ense
is her
Ġd ance
ou red
Ġn az
Ġcon sec
ber y
Ġman uf
Ġmar ine
Ġwe ather
Ġatt ention
Ġinv asion
Ġ194 2
Ġwin ter
Ġexc av
Ġnucle ar
Ġreve aled
Ġconfl ict
Ġmanuf act
Ġs le
Ġw ear
Ġf it
ar ian
ic ation
ent al
ut ions
og ue
Ġ4 9
Ġ5 2
Ġ18 2
Ġdef ensive
Ġseason s
Ġsupp l
Ġmain ly
Ġinst r
Ġfeat uring
iam i
Ġdem onst
Ġresult ing
Ġtyp ically
Ġbecom es
Ġaccept ed
r is
Ġf iction
ing u
ur a
id ian
im ony
Ġsc ale
Ġfin als
Ġconc ent
Ġpract ice
uz z
g u
Ġal one
Ġplay s
Ġ18 1
Ġste am
Ġland ing
Ġmed ical
Ġauthor ity
Ġconn ect
Ġfly ing
Ġdom est
Ġspir it
Ġfow ler
e ch
Ġt ree
Ġf ully
Ġm ir
Ġm iami
Ġd un
us ion
Ġro les
Ġqu ality
Ġmin nes
Ġart ic
Ġdesc ription
Ġmo b
Ġchamp ion
Ġill ust
Ġhot el
Ġli ber
ceed ed
Ġangel es
Ġchann el
Ġminnes ota
Ġb h
en ant
Ġon to
Ġne igh
Ġsc oring
Ġab ility
Ġrec omm
Ġ6 4
Ġass ault
led ge
Ġdou b
Ġmean while
Ġlos ing
Ġpoet ry
urb an
Ġfinanc ial
Ġentertain ment
Ġt ank
Ġw ave
Ġin ch
Ġl in
ac her
Ġhe ight
Ġk ent
ap o
Ġen emy
Ġam ount
Ġ4 6
Ġapp arent
Ġele cted
Ġdist inct
Ġexp ed
Ġmod el
Ġobs erved
Ġvol un
o pe
Ġb int
Ġm att
es h
ic an
Ġr id
Ġwh y
Ġman chester
Ġsp l
Ġsp read
Ġ5 5
Ġoff er
Ġcol umn
Ġfl oor
Ġsur re
Ġport ion
ful ly
Ġshow ed
ark ed
Ġenc oun
Ġsout heast
Ġscot land
Ġbint ulu
c ript
k el
m un
r ate
u x
Ġt ik
Ġa im
Ġk a
ers h
Ġme chan
Ġrel atively
Ġact ing
Ġdr ive
Ġmer idian
Ġnar row
Ġsurround ing
Ġtyph oon
b ed
l ers
w here
Ġc ities
Ġm og
Ġd in
el a
ess a
Ġem ot
olog ists
Ġlead er
Ġown ed
Ġtri al
Ġ192 0
Ġplan et
Ġinflu enced
Ġhom es
Ġindepend ence
Ġsour ces
Ġmaxim um
Ġincor por
Ġenviron ment
Ġd ie
Ġper m
Ġme yer
Ġqu ite
Ġdo ing
Ġ194 1
Ġsal es
Ġbase ball
Ġpain t
Ġruss ian
Ġadvant age
i ro
p ole
on a
Ġas h
ess ions
Ġnot e
Ġshe l
Ġcol umb
Ġspe ct
Ġno thing
Ġem ph
Ġprote in
Ġtyp es
Ġbey onc
Ġcann ot
Ġhaw ai
r id
Ġand erson
Ġl ives
Ġn ico
Ġwe bs
Ġco al
Ġap art
Ġset s
Ġexp ressed
Ġchr onic
Ġmount ains
Ġintellig ence
b l
c an
t own
on ents
Ġb it
Ġf at
Ġd ress
Ġe th
Ġst an
ul ed
op er
Ġor b
Ġtw ice
Ġco ok
Ġfl ag
Ġprodu ce
Ġwrit e
Ġchurch ill
Ġpass ing
Ġocc asion
Ġorgan ized
Ġstand ing
Ġrepresent ed
Ġlet ter
Ġey es
Ġkil omet
Ġpot ential
Ġpie ce
Ġdiss ip
Ġadop ted
Ġcad m
Ġabandon ed
r ical
Ġw els
Ġc ateg
Ġf an
ro ad
ac ement
Ġk ak
ill s
Ġad vert
Ġper man
Ġspec im
Ġ198 6
Ġgl ass
Ġrich mond
Ġstruct ures
Ġelect ron
Ġflood ing
Ġnewsp aper
c y
c le
Ġd ang
ct ive
Ġun kn
Ġatt rib
Ġcapt ure
Ġfar m
Ġbeh av
Ġfree way
Ġbatter y
Ġbattles hip
Ġrug by
Ġcadm ium
Ġwels h
e x
p o
r ane
u ous
Ġp ap
Ġand rew
as y
Ġk ir
Ġch air
Ġsu d
cl aim
Ġbro ke
Ġdiv ided
Ġfound ed
Ġyou th
Ġtit led
Ġauthor ities
Ġearl iest
Ġsit es
Ġpromin ent
Ġemph as
g al
y r
en a
Ġp u
Ġh ors
Ġl ane
et te
Ġar rest
Ġcomp ound
Ġad j
Ġte nd
Ġspe ak
Ġke pt
Ġview ers
Ġphys ical
Ġmention ed
Ġstra ight
Ġcrow d
Ġaven ue
w ide
Ġc it
Ġf olk
is a
Ġl l
Ġre act
ul ts
iz es
Ġwe ak
Ġgr ass
iss ipp
Ġwork ers
Ġob t
Ġ198 8
Ġreturn ing
Ġmiss issipp
anc y
Ġtit les
Ġbelie ve
Ġill ino
Ġachie ved
Ġded icated
Ġbasket ball
Ġtik al
n ospondyl
Ġt rou
Ġs ens
Ġc em
Ġro s
Ġtr a
Ġsp ot
Ġfilm ing
Ġact ress
Ġed ward
Ġoper ated
Ġoffic ially
Ġaff ected
Ġcurrent ly
Ġmeas ure
Ġschol ars
Ġdomest ic
Ġmog ad
Ġf red
Ġd og
Ġh ung
ac ts
Ġj ur
Ġat tended
em s
se nd
our s
Ġinter change
Ġold er
Ġcamp us
Ġtem nospondyl
Ġbas is
Ġengine er
Ġchap el
Ġrh odes
Ġmississipp i
Ġcem eter
Ġt act
Ġs ar
Ġg ib
Ġsh ape
Ġ4 1
Ġcol ony
Ġfound ation
Ġsl am
Ġjohn son
Ġbattal ions
Ġpa id
Ġcou ple
Ġlet ters
Ġgrow ing
Ġenc our
Ġindivid uals
Ġbra at
Ġchall en
i ot
Ġd ar
Ġl b
Ġpro ved
Ġsh ar
Ġun f
Ġag ric
Ġwe ight
Ġsing ing
ah a
Ġclass ic
Ġkill ing
Ġhistor ian
Ġgold en
Ġjour ney
Ġequip ment
Ġdeterm ined
Ġweap ons
Ġmultip le
Ġcrick et
Ġunkn own
b ird
l am
w ise
Ġ iv
Ġs r
Ġg ra
Ġch or
Ġ4 3
Ġim ages
Ġoper a
Ġla id
Ġeu rop
Ġturn er
Ġext ra
Ġprote ction
Ġord ers
Ġsen ior
Ġunl ike
h l
i ations
Ġc in
Ġd raft
Ġh ms
Ġl am
Ġn es
am ing
Ġcont ain
Ġall ied
Ġcons isted
Ġfr ag
Ġtown send
Ġgre w
Ġposs ibly
Ġrelig ion
Ġeconom ic
Ġbey ond
Ġdig ital
Ġrapid ly
Ġanalys is
Ġkak apo
Ġmogad ish
m ore
u j
y an
Ġ ic
Ġb ost
Ġd ry
Ġe at
Ġst ock
Ġal ab
Ġv ic
ip s
Ġi b
Ġ5 6
Ġatt or
ath us
Ġapp le
Ġele ment
Ġstud ent
Ġ17 9
Ġroad s
Ġsupport ing
Ġcaus ing
Ġproject s
Ġho pe
Ġexec utive
Ġrose bery
Ġdynast y
Ġmeyer be
h u
r ative
w in
Ġb ull
is ters
Ġd ub
Ġre aching
Ġe ag
um ber
ist ry
Ġsh iva
Ġnot able
Ġ9 3
Ġfollow s
Ġameric ans
Ġsupp ly
Ġadv anced
Ġwal pole
Ġcho ice
Ġcompos ition
pr ise
Ġagric ult
Ġmogadish u
Ġmeyerbe er
e k
t v
Ġb c
Ġse nd
Ġy ue
ian a
Ġcomp uter
Ġfin kel
Ġpr ime
Ġsecond s
Ġent rance
Ġarm s
air s
ke y
Ġsk in
Ġpit cher
Ġclaim s
Ġpromot ed
Ġcer em
Ġsecret ary
Ġtar get
Ġdise ase
Ġnico le
Ġfinkel stein
p ass
Ġ ur
Ġt essa
Ġf ired
Ġm d
Ġm ut
Ġe ll
Ġhe ard
Ġcon gress
Ġk ar
Ġne ut
og en
Ġ9 7
Ġdo ctor
Ġmin im
Ġ198 5
Ġ194 4
Ġprop os
Ġknow ledge
Ġsett lement
Ġident ified
Ġtreat y
Ġott oman
Ġconsec utive
Ġkilomet res
h aps
Ġa head
or ter
ol a
Ġr ise
ot y
Ġk g
Ġk ur
Ġ5 3
Ġfl ank
Ġact ors
Ġra j
Ġrequ ire
Ġsuggest s
Ġcritic ized
Ġanim als
Ġseem s
Ġadminist ration
Ġlie ut
Ġfranc is
Ġlib r
d on
v in
Ġc ry
Ġf ix
Ġin du
Ġg ained
Ġcl ar
Ġper haps
Ġnew ly
Ġme nd
Ġchar ge
Ġste el
Ġ12 0
Ġop in
Ġtri p
Ġpri est
Ġrefer ence
Ġha it
Ġanim al
Ġarchae ological
Ġpie ces
Ġportug ues
Ġsust ained
Ġillino is
Ġalab ama
al a
Ġd ur
ut ing
Ġch os
Ġmal es
Ġnomin ated
Ġwit ness
Ġphilipp ines
Ġfres h
Ġvolun te
Ġbraat hens
Ġportugues e
e z
g n
Ġ ig
Ġw ed
Ġb bc
ro l
igh th
ge nd
Ġfe ed
Ġ196 4
Ġpit ched
Ġbur ied
Ġfun ction
Ġwall s
Ġchap ter
Ġesc ape
Ġresul ts
Ġdro pped
Ġconstit ution
Ġsimp ly
b itt
Ġt int
Ġs ought
Ġc ust
Ġc ub
Ġf ought
Ġd ata
Ġe t
ir ing
ast ic
Ġper n
Ġsecond ary
Ġmat ter
Ġvict im
Ġcle an
Ġcas es
Ġsurv iv
ush ing
Ġsubsequ ent
Ġplat form
Ġliter ature
c ul
m es
t le
Ġf al
Ġp ine
ad el
Ġres erv
Ġ5 4
Ġ5 7
Ġser ve
Ġ6 2
Ġstud ios
Ġland fall
Ġprov ince
Ġant imony
Ġdel iver
Ġdeb uted
Ġchart s
Ġconfir med
Ġattor ney
Ġchos en
Ġc art
it able
om s
th y
Ġr ub
Ġcon sequ
ell a
out s
Ġjo in
Ġdo or
Ġapp l
Ġ198 7
Ġpass es
Ġir a
Ġpoem s
Ġrail way
Ġolymp ic
Ġdism iss
Ġpolic y
onym ous
Ġdv d
Ġun su
ian ce
ord in
Ġcont ent
Ġjo int
Ġ9 5
Ġreg ions
Ġbar row
Ġra id
hel ess
Ġsol o
Ġlab el
Ġpen ins
Ġcond ition
Ġinj ury
Ġinstit ute
Ġgrant ed
b ody
k in
l ings
r ons
Ġs arn
il es
Ġg as
ad or
Ġhe ll
Ġy ank
Ġsh are
Ġcl ou
Ġcont aining
Ġfe y
Ġass ass
Ġunder ground
Ġfilm ed
Ġsy nt
Ġsouth west
Ġinc ident
Ġz hou
Ġset ting
Ġdr ama
Ġcre ation
Ġeven ing
Ġrom e
Ġvis ited
Ġweek ly
hel m
Ġimport ance
Ġwood en
Ġcritic ism
Ġbost on
Ġlieut enant
Ġtint in
a en
m et
al ing
Ġv ice
Ġy e
Ġle w
Ġle gend
Ġtr ain
Ġ6 00
Ġwar s
Ġcons p
Ġdep th
Ġbel ong
Ġ198 4
Ġ197 2
Ġfam ous
Ġpublic ation
Ġvis ual
Ġvir t
Ġincreasing ly
Ġbeaut y
Ġnecess ary
Ġwebs ite
Ġf ro
Ġp y
al le
Ġl uc
Ġg ulf
Ġr it
Ġcon ne
Ġat m
ap pe
Ġsh r
Ġro of
ip l
Ġkn e
Ġport ra
Ġ194 7
Ġvar anas
Ġturn ing
Ġdel ay
Ġcross ing
Ġmot or
Ġpromot ion
Ġgrow th
Ġcer es
Ġproble m
Ġmaint ained
Ġcontroll ed
Ġvaranas i
j o
s w
u le
Ġ ice
Ġt anks
Ġb es
is hes
Ġg ang
Ġas ia
Ġun s
Ġcomp ar
Ġte acher
Ġev a
Ġdr am
Ġany thing
Ġstart s
Ġcor re
Ġwilliam s
Ġarg ent
Ġarg ued
Ġod aen
Ġvers ions
Ġfamil ies
Ġnes bitt
Ġatm osp
y ch
he as
Ġc av
Ġf ame
el le
ol ved
th ur
Ġr ival
Ġj up
Ġro d
Ġcomp r
Ġco ol
Ġ6 1
Ġret ired
Ġrest aur
Ġav oid
Ġplan ning
Ġtor res
Ġagre ement
wor ks
Ġtemper ature
Ġsev enth
Ġdum ont
Ġodaen athus
c op
h ire
Ġb a
Ġf ung
Ġp oll
Ġg ord
ay er
ot ed
um es
ak a
Ġtr uth
ov ic
Ġrec onst
Ġ7 2
Ġ198 9
Ġ196 9
Ġexpl ained
Ġsum m
Ġpain ting
Ġcolon ial
Ġloss es
clus ion
Ġbott om
Ġreject ed
Ġadmir al
Ġsarn ia
i j
o e
Ġ urban
er ts
ed ar
Ġb ru
Ġf ash
st ation
iv ity
Ġj on
Ġcon ve
Ġv ul
Ġad ap
Ġad apt
Ġcar l
Ġsub m
Ġwrit es
Ġsur vey
Ġtown s
Ġext ensive
Ġpal est
Ġtechn ology
Ġfem ales
Ġindust rial
Ġfa ith
Ġconn ected
Ġslow ly
Ġproper ty
h an
Ġm ig
Ġg ives
ad ing
im ents
Ġk ings
Ġro t
Ġun us
Ġun ique
Ġgr am
Ġ9 6
Ġreg ister
Ġdef in
Ġsub mar
Ġ13 0
anc ing
Ġsystem s
ograp her
Ġox ford
Ġthunder bird
Ġpenins ula
i ant
Ġt el
er ted
Ġc amb
Ġo uter
Ġd w
Ġh art
Ġe gg
le man
et y
Ġse g
Ġk en
Ġch ur
Ġcom es
Ġsu nd
Ġne ither
Ġres emb
Ġ7 3
Ġsever e
az z
Ġhel ms
Ġfail ure
Ġide as
Ġentire ly
Ġsched uled
Ġris k
Ġjup iter
m ark
Ġthe ory
st ream
ot e
Ġit aly
Ġch ose
od on
Ġrec ently
Ġres erve
Ġ8 1
Ġend s
aw a
Ġdist ingu
Ġval ue
Ġcommon ly
Ġphil os
Ġtransport ation
Ġemploy ed
Ġscott ish
Ġweaken ed
in ity
Ġs ave
Ġs elling
Ġw ins
Ġh at
Ġg reek
Ġr um
Ġv ent
if ying
ore n
Ġsh aped
Ġar c
Ġtr ust
Ġtr ying
Ġdes cend
Ġbr ight
Ġrem n
Ġunder t
Ġturn s
Ġbelie f
Ġfre ed
Ġvol ume
Ġcreat ing
Ġprem i
Ġfell ow
Ġdut ch
Ġom aha
Ġprep ared
Ġrough ly
Ġhors es
heas tern
e en
Ġt all
on ent
Ġw ides
Ġm ong
Ġd ated
as ure
ic ed
Ġl ov
Ġg ain
Ġst ore
Ġex tend
Ġcont est
Ġcont ained
Ġplay station
iz ations
Ġco oper
Ġspe nd
Ġver t
Ġfr ame
Ġ8 5
Ġapp lic
Ġarm or
Ġmo on
Ġfind s
Ġfind ing
Ġsignificant ly
Ġfac ilities
Ġcolon el
Ġfav our
Ġtreat ment
Ġwil helm
Ġparticip ated
Ġcontrib uted
Ġvictor ia
Ġfrequ ently
Ġfant asy
Ġm ist
Ġm ike
Ġth in
ans as
Ġ7 00
Ġmus h
Ġma x
Ġmin er
Ġz one
Ġworld wide
Ġsim ple
Ġ198 1
Ġopp osed
Ġje ff
Ġtechn ique
Ġinn is
Ġregard ed
Ġsurre nder
f ort
k are
re te
Ġc d
Ġm ap
Ġh ang
ul ate
ri er
Ġad ult
Ġso le
Ġpar alle
ph ia
Ġph ase
Ġserv ing
Ġang le
br idge
Ġpen al
Ġinn ings
Ġmcc all
Ġprem ier
Ġeconom y
Ġoccup ied
Ġpow ers
Ġexperi enced
adel phia
Ġgord on
o ch
Ġa ired
Ġs in
Ġc ited
Ġb art
il ed
Ġg ross
ir t
Ġr ating
Ġse ctor
ok ed
iss ance
Ġ8 00
Ġhigh light
Ġgener ation
Ġstr ateg
Ġdeath s
Ġhouse hold
Ġpopular ity
Ġles ter
tim ore
Ġcard iff
Ġbal timore
Ġneg ot
Ġaspect s
Ġsuppl ies
Ġmush room
Ġ ere
Ġt able
Ġc aught
Ġb ac
Ġp in
Ġm ine
Ġd ates
Ġst ations
Ġis ol
Ġfe ar
Ġmar ines
Ġbr id
Ġacc ident
Ġso ft
Ġcolle cted
Ġ191 8
Ġdecl ined
Ġsuccessful ly
Ġrecogn ized
Ġdeg ree
Ġegypt ian
Ġsem i
Ġpurch ased
Ġhyd ro
Ġcin em
g ers
Ġs ort
Ġf ict
is ers
Ġl u
Ġn as
Ġst ages
ly wood
Ġu b
Ġr ih
Ġpro s
if ul
se y
Ġus a
Ġres ident
Ġover se
Ġ9 8
Ġeng aged
Ġocc as
Ġarr ival
Ġsw ed
Ġlook ed
Ġham els
Ġmass ive
ship s
Ġbrief ly
Ġbreed ing
Ġrih anna
z o
er atops
Ġb ern
Ġd rop
Ġd rew
Ġe ld
Ġal tar
Ġres ist
Ġ5 9
are t
Ġinter ior
we alth
Ġ7 7
Ġtrans it
Ġ194 3
Ġexp anded
Ġ196 8
Ġcr us
Ġra af
Ġstre t
Ġbeg un
Ġcommon wealth
Ġeffect ive
Ġcoast al
Ġget ting
Ġstop ped
Ġbrother s
Ġmart in
Ġliter ary
Ġgrad ually
Ġdan iel
Ġcroat ia
Ġdj ed
Ġmun ic
Ġlibr ary
i qu
n s
p read
s et
Ġt s
Ġh aven
Ġn erv
Ġde ities
ain e
ap es
Ġne ck
Ġpl um
Ġle ar
ell er
Ġcont act
Ġam ph
Ġ6 6
Ġ8 2
Ġ196 5
Ġconc rete
Ġphil adelphia
Ġmot ion
Ġcommission ed
Ġrul es
Ġmcc art
Ġimpro ved
Ġcell s
Ġbud get
Ġfash ion
Ġwides pread
Ġdjed kare
m al
Ġs ie
at o
Ġm and
Ġd ial
Ġh ib
un k
Ġpl ate
Ġle e
Ġwor ship
Ġmar sh
we ight
Ġ7 1
Ġgame play
Ġdec ades
Ġold est
Ġ193 9
Ġaddition ally
Ġevery thing
Ġbill ion
Ġhold ing
Ġregard ing
Ġviol ence
Ġpil ot
Ġcra zy
Ġexped ition
i ences
m at
u ate
Ġt one
Ġa k
er r
re y
Ġb le
Ġf uel
at us
Ġst ones
id er
Ġse at
res p
Ġrec ru
Ġfin ish
Ġfl u
Ġhead ed
Ġdevelop ing
Ġallow s
Ġexpl os
Ġsol id
Ġtur k
Ġearth qu
Ġproduc ers
wh ite
Ġexist ing
Ġrein force
Ġdra wn
Ġrespond ed
Ġchor us
Ġunsu ccess
Ġkne w
i as
z a
Ġw we
Ġr ivers
Ġal f
em an
ill o
Ġro utes
ie val
Ġmar c
Ġcent uries
Ġspe aking
Ġcan al
Ġappe al
Ġste ve
Ġrece iving
Ġcr ime
ivers ary
gr aded
Ġmed ieval
Ġ191 4
Ġcor por
Ġwat ch
Ġreason s
Ġnorm al
Ġathlet es
Ġrepe ated
Ġsud den
Ġtemnospondyl s
Ġapple white
m ans
o ys
Ġand y
Ġn ba
Ġhe ar
iv ered
et on
Ġan onymous
Ġch am
Ġch ains
ond er
Ġ9 4
Ġ194 6
Ġclass ified
Ġmy th
Ġstre ets
Ġprote ct
Ġfall s
Ġfoc used
Ġast ron
Ġlearn ed
Ġconver ted
l ines
t w
it ors
Ġh ind
Ġe ighth
Ġk it
and a
av a
ok es
ass y
ub e
Ġag ent
Ġdis appe
Ġpre fer
Ġgr ay
Ġadd ing
Ġter ror
Ġ11 0
Ġ17 7
Ġ197 1
Ġdel ivered
Ġpolit ics
Ġpal ace
Ġdecl ine
Ġhill s
Ġintrodu ction
Ġtom b
Ġassist ant
Ġdetail s
Ġsculpt ure
Ġbene f
l a
Ġo pt
Ġb ats
Ġf el
Ġp ack
Ġh an
ol is
Ġr on
Ġr abb
Ġj ac
if ically
Ġex clus
Ġreg ional
Ġcap able
Ġdiv isions
Ġbel g
Ġbel t
Ġdist urb
Ġlast ed
Ġsent ence
Ġfield s
Ġpur s
Ġchampionship s
Ġsett lers
Ġod e
Ġvehic les
Ġopportun ity
Ġpaint ings
Ġperman ent
Ġlew is
Ġadap ted
Ġchur ches
c ription
Ġa i
as c
Ġr ural
Ġle aves
ess ed
Ġsc he
Ġind ig
Ġform ula
Ġperform ing
Ġ197 5
Ġel imin
Ġown ers
Ġmy ster
Ġbas in
Ġcross ed
Ġexper iment
Ġsurv iving
Ġelect ric
Ġreb u
Ġdomin ated
Ġneg ative
Ġaccompan ied
Ġpag an
Ġswe et
Ġpurp ose
Ġsynt hes
a res
b ar
j a
o ir
o be
r um
Ġs ap
at i
is f
Ġh its
Ġu til
Ġr and
Ġcon vers
Ġse ctions
os es
Ġcom ic
Ġsu pre
Ġsh op
Ġle v
Ġfir m
Ġbo ys
Ġgr aves
Ġchar ges
Ġac res
Ġdec re
Ġdec ade
Ġdown town
Ġke ats
Ġmiss ing
Ġgl ob
Ġhum ans
Ġcou gar
Ġdiscover y
Ġtell s
Ġgard en
Ġaw are
Ġartic le
Ġcamb od
c ome
r ant
y les
Ġa ri
Ġc ul
Ġb oss
is y
ing ly
Ġn athan
se a
Ġex act
oc ated
Ġgo es
Ġpo pe
Ġear n
Ġspe ech
ren ce
ames e
Ġtrans form
Ġdec or
Ġlo b
Ġ16 0
Ġjust ice
Ġtri ple
Ġgre g
Ġway s
Ġposs ibility
Ġauth ors
Ġsimilar ly
Ġview ed
Ġsuper ior
Ġcomb ination
Ġinvol vement
Ġdou gl
Ġsurv ived
Ġseem ed
Ġexist ence
Ġsaf ety
Ġamb ass
Ġwrest ling
Ġthir ty
Ġfict ional
z er
Ġw olf
Ġc ens
Ġb ought
Ġf u
Ġh ired
ic ks
Ġn ak
Ġcon qu
ist an
Ġex it
Ġen l
Ġmar io
aw s
Ġtrans m
Ġdid n
Ġ196 6
Ġcr imin
Ġserv es
Ġcharacter istics
ograp hic
Ġyoun ger
Ġtechn ical
Ġclos ely
Ġbra z
Ġacad emic
Ġexam ples
Ġshoot ing
Ġconsist ing
Ġhabit at
Ġconsp ir
k ins
Ġb anks
Ġm it
ar m
ic ations
Ġon es
im b
Ġch ance
Ġsh ore
igh ter
ru pt
Ġ6 9
Ġ8 7
Ġdiv ers
ific ations
Ġ16 4
Ġ194 5
Ġcommand ed
Ġju an
Ġ191 6
Ġcor resp
Ġprogram s
Ġcolon ies
bor ough
Ġgir ls
Ġsubst ant
Ġestablish ment
Ġvietn amese
Ġdistrib ution
Ġattr act
Ġconserv ation
Ġsymb ol
Ġcorresp ond
r ang
r ont
Ġa u
in i
Ġw ard
Ġd ru
Ġn ap
Ġr ick
ut ation
Ġit ems
um a
op her
Ġsh ut
Ġsh all
ab il
Ġab u
Ġres our
Ġpo ol
Ġatt ached
Ġcons ists
Ġlong est
Ġprov ides
Ġ197 3
Ġ196 7
Ġmod er
Ġcour ts
Ġwal ter
Ġ191 5
Ġreview ers
Ġstory line
Ġoppos ition
Ġinterse ction
Ġoccasion ally
e ction
t hen
y m
Ġa ston
Ġs ad
Ġp uzz
Ġd im
Ġh ug
Ġn om
Ġj es
Ġk ersh
ant ly
Ġar thur
Ġrec re
Ġup d
Ġpr int
Ġjo e
Ġdef ined
Ġcall s
Ġed itor
Ġcontin uing
Ġ197 4
Ġche l
Ġview s
Ġpit ch
Ġtal k
Ġfac ing
Ġrail road
Ġaccom pl
Ġnucle us
Ġut c
Ġcontrovers y
Ġchem ical
Ġps ych
Ġenjoy ed
Ġig uan
Ġconve ction
o en
Ġs id
re c
ed a
Ġl ic
Ġg ully
ust ed
Ġtw el
Ġrec onna
Ġ6 3
Ġgu ide
Ġent ering
rop ri
Ġrev en
Ġland ed
Ġ197 8
Ġ195 2
Ġ191 9
Ġleg acy
Ġsk ull
app ing
Ġho ly
Ġrul ed
Ġcru iser
Ġemb assy
Ġren amed
Ġroll ing
het ic
Ġdeploy ed
Ġmend es
Ġdougl as
Ġkersh aw
Ġreconna issance
r at
re ll
Ġb ert
Ġin ner
Ġh in
Ġh ull
Ġg am
ac ity
Ġv on
Ġsh ared
Ġar sen
Ġfin ishing
Ġkn ock
Ġsy d
Ġgu y
Ġloc ations
Ġ197 6
Ġpass age
Ġmiss ions
pect ive
Ġ25 0
Ġclub s
Ġinit i
Ġhistor ians
Ġfund ing
Ġhapp y
Ġprinc ipal
Ġfill ed
Ġcit iz
Ġappl ied
Ġtwel ve
w ater
y cl
Ġw ick
ed s
Ġf ine
it an
Ġin g
an z
Ġd ating
Ġl it
Ġn ic
Ġg ate
ent ially
id ay
Ġj ers
Ġag ency
Ġcol our
Ġsec ure
ious ly
Ġmus lim
Ġsupp osed
Ġinv ited
Ġdep ict
Ġpop ulations
Ġ17 5
Ġexp ans
Ġdescrib ing
Ġgre y
ime ter
Ġwind ow
che st
Ġfeel ing
ruct ure
Ġsuc ceeded
Ġdissip ated
Ġchallen ge
Ġthunderbird s
Ġturk ish
c hen
h i
Ġt ag
Ġt ip
Ġt etr
Ġthe ater
Ġc ant
Ġh ip
ic op
Ġl isa
Ġre ne
Ġg il
Ġj um
Ġk ang
ist on
Ġbut ler
Ġbo ise
ach us
Ġ6 8
Ġgr av
Ġgr ade
Ġchar ter
Ġmov es
Ġprov iding
Ġ197 9
Ġadv is
Ġ191 7
Ġ193 6
Ġengine ering
Ġassist ance
Ġinstr ument
Ġpu pp
Ġcemeter y
Ġearthqu ake
Ġastron om
i ar
i ary
r ig
v o
Ġt ied
Ġs ed
Ġs ight
Ġs ang
Ġn one
Ġal bert
Ġj ump
Ġv ision
Ġex erc
Ġle on
Ġte eth
Ġsp ons
Ġshe ar
Ġpo le
ubl in
Ġdo ct
Ġste ad
Ġdep os
ys on
Ġdown lo
ann y
Ġhel icop
Ġgreat ly
Ġwal k
Ġdem and
bo ok
Ġrepl acement
Ġinde ed
Ġprot agon
Ġsuff icient
Ġder ived
Ġproduc ing
Ġmac le
Ġanc est
Ġjud ge
Ġgall ery
Ġconsider able
Ġpict ure
Ġcert ified
Ġthous ands
Ġhawai i
Ġcateg ory
n ic
Ġc rop
Ġb ly
Ġp ale
Ġm l
Ġm u
Ġm ent
am in
ot es
Ġis ab
Ġj ones
Ġan ton
Ġde ck
us al
Ġor n
Ġor chest
Ġpl ain
Ġex pect
Ġwor th
Ġkn ots
Ġver te
Ġpubl isher
Ġdep icted
Ġ198 2
Ġ194 8
Ġcr ash
Ġmy c
Ġprote cted
Ġcommun ist
Ġrepl ace
sh ire
Ġcivil ian
Ġhol lywood
Ġque ens
Ġrese ar
Ġimm ig
Ġdoll ar
Ġbon o
Ġacqu ired
Ġresc ue
Ġclou d
Ġamph ib
Ġsie ge
c rib
e v
t ure
Ġs i
Ġs anta
Ġc ater
Ġo reg
Ġb ath
Ġm tv
Ġd ublin
Ġj ay
Ġj ain
Ġk id
ag re
pp ing
Ġwar ri
att le
Ġspec ifically
Ġsuccess or
Ġcross es
Ġwat ched
cher s
Ġprofess or
Ġinsp ir
Ġremain der
Ġcolor ado
Ġanth ony
Ġrhy th
Ġgh ost
Ġelectron ic
Ġeurop ium
Ġbraz il
Ġoreg on
u ct
re ts
or a
Ġd ota
as er
Ġn c
Ġn ose
Ġal le
Ġj azz
Ġk hn
Ġam l
Ġmar l
Ġmar ia
ff man
Ġac id
ph y
Ġwhere as
Ġrece ive
Ġ196 3
Ġattack ing
eng ers
Ġve get
Ġtyp ical
Ġden ied
Ġflight s
Ġsubst it
Ġathlet ic
Ġfavor ite
Ġconcern s
Ġprinc ip
Ġcharl ie
Ġopin ion
Ġwed ding
Ġsund ay
Ġbly the
d ie
e or
t heless
re l
Ġb rian
Ġd ock
Ġd iam
ion e
il ton
Ġst em
Ġhe d
id ae
Ġk its
Ġv el
ri f
ich ol
Ġ5 8
Ġev ita
Ġbl ocks
Ġkn ight
Ġ7 8
Ġcar bon
Ġhow ard
Ġmon uments
Ġph ill
Ġtrans ition
Ġinst ru
Ġshow ing
Ġnever theless
Ġhy p
Ġbi ography
Ġ189 0
Ġmeas ures
Ġcred its
Ġarrang ed
Ġcroat ian
Ġrat ings
Ġspl it
rane an
Ġjers ey
i able
n o
z ac
Ġa x
Ġin land
Ġl enn
Ġk at
est one
Ġpro ceed
ard o
ame ter
Ġam ate
Ġdes ire
Ġinter act
Ġfl at
Ġ7 4
Ġjo y
Ġcar ib
Ġfr anch
eric k
Ġadd ress
Ġmet eor
Ġstorm s
Ġtri es
Ġtown ship
Ġrom antic
Ġreview er
Ġsee ing
Ġread ing
Ġdestroy ers
Ġengine ers
Ġmem ory
Ġcirc um
Ġlaun ch
Ġunc le
Ġjam al
Ġcarry ing
Ġextre m
bre ak
Ġportra it
Ġsupre me
Ġkhn h
b ra
Ġc os
Ġo ri
Ġf ount
el ess
Ġon line
Ġst ere
Ġal an
Ġk el
ri en
Ġnot ing
pt y
Ġfir ing
Ġwor st
Ġafter wards
Ġcomm em
Ġme ets
Ġpart ners
Ġmay or
Ġ9 1
Ġ8 9
aw are
Ġret reat
Ġcap acity
Ġste w
Ġrep utation
Ġoper ating
cept ion
Ġ195 3
Ġbus h
Ġreal ity
Ġrefer ences
enc ies
Ġdu ke
Ġhold s
Ġdifficult y
Ġli u
Ġrecogn ition
Ġstreng then
Ġrepublic an
Ġinh abit
Ġstep hen
Ġtenn yson
Ġportray ed
Ġtermin us
Ġalex ander
m od
s p
y c
Ġs ab
it led
Ġm ock
Ġd ipl
Ġh ud
Ġg one
ly ss
Ġr io
Ġal leg
Ġpl ants
Ġcl a
Ġsp r
Ġsp in
Ġfl o
Ġbr and
Ġsome one
Ġver se
Ġbro ok
Ġsim on
Ġmag ic
Ġbre aking
Ġ191 3
Ġlab our
bor ne
Ġcreat or
Ġrare ly
Ġrecover ed
Ġironcl ads
Ġchair man
Ġcust om
Ġira q
Ġambass ador
Ġmacle od
y ard
Ġs her
Ġp ier
il ing
am y
ad al
ad ow
Ġan zac
ul i
os is
Ġ19 00
Ġwe alth
Ġacc ounts
Ġact s
Ġsim one
Ġest ate
Ġcr is
Ġdem ol
Ġbas ic
Ġopp onents
Ġpri ze
Ġcompet itions
Ġ188 0
Ġsepar ated
Ġrespons ibility
Ġmaint ain
Ġsev ent
Ġmethod s
Ġpick ed
Ġironcl ad
Ġdemocr atic
Ġcolumb ia
Ġrestaur ant
Ġfreed om
c on
r ations
t ic
Ġw y
Ġp av
an y
Ġh ay
Ġhe m
Ġv ary
ag n
un t
Ġex change
pt on
Ġoff ers
Ġout standing
Ġfr ig
Ġent ry
Ġlo yal
Ġimp oss
Ġ17 6
Ġexp os
Ġorgan izations
Ġappear ing
Ġattempt ing
Ġnet her
Ġconv oy
Ġpred e
Ġcard inal
Ġcred ited
Ġinvestig ation
Ġwr ong
Ġaltern ative
Ġelse where
Ġvess els
Ġattrib uted
Ġeag le
Ġpenal ty
Ġbrid ges
Ġcarib be
b les
e enth
i en
k es
o h
Ġt ig
Ġf ab
Ġl oren
Ġu lyss
Ġr aces
Ġcon greg
Ġan sw
us sion
ag u
Ġsu re
ap ped
Ġro y
ie ce
Ġte aching
Ġper ry
Ġwar m
Ġrem ember
ral tar
Ġacc ur
Ġ194 9
Ġlead s
Ġdesign ation
Ġann iversary
Ġcamp s
Ġtri als
Ġ195 1
Ġ195 6
Ġwind ows
Ġmer c
Ġstat ement
Ġoccur s
Ġhom er
go ing
Ġsen ate
Ġthreat ened
wor th
Ġrif les
Ġbeaut iful
Ġdiscuss ed
Ġleaders hip
Ġgib raltar
Ġagricult ural
Ġconne ction
Ġcav al
Ġere cted
Ġmunic ipal
Ġglob al
Ġextrem ely
Ġcaribbe an
Ġulyss es
c ks
e per
g as
i ents
in n
Ġs ell
Ġp ig
ing er
ce ived
ag ues
av ia
art s
Ġman ner
Ġcomm itted
Ġmar ks
Ġag gress
Ġdes ert
Ġev il
Ġ7 9
Ġreg ime
Ġacc used
Ġmon arch
Ġ12 3
Ġstud ied
Ġmiss ed
Ġcolle ct
Ġmo z
Ġarch b
Ġsw ord
Ġappro ached
Ġcal c
Ġpur su
Ġaff ect
Ġfall ing
Ġinterest ed
iff e
Ġappo int
Ġindic ate
Ġemer g
Ġolymp ics
Ġcerem ony
Ġdismiss ed
Ġatmosp here
Ġisol ated
Ġprede cess
i pe
Ġs ession
Ġc ot
Ġb in
Ġm ul
Ġg ather
Ġch an
op es
Ġpl un
Ġtw in
Ġbec k
Ġpre y
Ġpre gn
Ġ6 7
man n
Ġsou l
Ġno isy
Ġ8 8
Ġret ire
Ġ198 3
Ġnov els
Ġwin ner
Ġcamp b
Ġclass es
Ġclass ical
Ġcommun ities
Ġcover s
Ġhor iz
Ġrul er
Ġtrib es
Ġhost ed
Ġheart s
Ġdut ies
Ġnin th
Ġequip ped
Ġdoll ars
Ġhorn ung
Ġgeorg ian
Ġrecomm ended
Ġvictim s
Ġsurviv ors
Ġremn ants
Ġparalle l
o om
p ret
u it
z z
Ġf aces
Ġp up
Ġth ro
Ġg ore
Ġhe at
id den
ot hes
ist ol
Ġsh if
ell i
Ġdis app
Ġsec ured
Ġso il
Ġret ained
Ġgu err
Ġph oen
Ġarm ored
Ġsim ps
Ġ11 2
Ġjun ction
Ġ196 1
Ġel iz
Ġstar red
Ġvis ible
Ġbelie ves
Ġmer ch
Ġstrong ly
Ġprogram me
Ġson ic
Ġsuff ering
Ġsett le
Ġsele ction
Ġdi ameter
Ġforest s
Ġcam era
Ġfeel ings
Ġaut om
Ġimmedi ate
Ġexcept ion
Ġdyn am
Ġemer ged
Ġarrang ement
Ġali en
Ġmess age
Ġtun nel
Ġneigh bor
Ġbattleship s
Ġfrancis co
Ġpy ram
Ġrit ual
Ġegg s
Ġresist ance
Ġchel sea
Ġiguan odon
Ġsimps ons
g ie
n oon
o ly
u ge
v ar
w an
Ġ ern
Ġa h
Ġa y
Ġs ons
Ġs ara
Ġb ou
Ġb ure
Ġb ang
or ters
Ġp ad
Ġe ch
Ġhe rit
iv als
Ġal t
et ts
Ġv ac
Ġsh ots
oc a
Ġint ention
Ġafter noon
Ġpart ly
Ġwe b
Ġpr in
Ġma h
Ġarm our
Ġarm oured
Ġdr iving
Ġpass engers
Ġconc erts
Ġrest oration
ink ing
Ġpat rick
Ġstand s
Ġconv in
Ġnat ives
Ġimpro ve
Ġintens ified
Ġcam bridge
Ġdraw ing
oo th
Ġbring ing
Ġcandid ate
Ġdoub t
Ġspecim ens
Ġkur t
Ġreconst ruction
Ġunus ual
Ġcham ber
Ġtetr arch
Ġherit age
e xt
n ell
r ight
Ġt aught
Ġc ape
or gan
Ġm am
Ġl ap
Ġre ver
Ġg ry
ay a
Ġj enn
Ġv oy
ag a
Ġint e
Ġsp acing
ok ing
Ġpart ies
Ġdis pl
Ġcar ved
Ġdef ences
Ġdef ended
Ġma eda
Ġlo ver
az a
Ġra f
Ġ191 0
Ġmor al
Ġleg s
Ġpat ri
Ġdest iny
Ġappro ved
ob a
Ġbur ial
Ġham ilton
Ġroman i
Ġtest s
Ġmad onna
Ġreb ell
Ġmult i
Ġroom s
Ġnomin ation
Ġschol ar
Ġconstant ine
Ġarrest ed
Ġobt ained
Ġhait i
Ġlear ning
Ġhib ari
Ġhin du
Ġrene w
Ġdipl om
b ur
r uli
Ġt u
Ġs ke
Ġw el
Ġw onder
Ġo ak
Ġf old
Ġf itted
or er
Ġp ushed
es is
Ġg le
am ents
ac ent
Ġst yles
Ġj ury
us es
Ġbl ues
Ġrem ark
Ġ9 9
Ġac kn
Ġinc ome
Ġcount ies
Ġinf r
Ġimp lement
Ġsign ing
Ġever gl
Ġreturn s
Ġstar r
Ġeas y
Ġdeb ate
ival ent
Ġdet ect
Ġchang ing
Ġmass achus
Ġclos er
Ġterrit ories
Ġq edar
Ġven us
Ġos lo
Ġrang ers
Ġmort al
Ġarchitect ure
Ġrif le
Ġattr acted
Ġpurch ase
Ġresour ces
Ġarsen al
Ġexpans ion
Ġimposs ible
Ġbure au
Ġackn ow
Ġevergl ades
Ġmassachus etts
f are
ic ts
Ġan ne
Ġsh o
Ġro ger
Ġun p
Ġcl ay
Ġad ults
Ġim pl
Ġoff ense
Ġover w
Ġfl ed
ult ane
Ġsong writ
Ġsim ultane
Ġ197 7
Ġconf eder
Ġintern al
Ġeas ily
que z
atter ed
Ġrock y
Ġcat ch
Ġobs er
Ġread y
Ġadm itted
Ġsam uel
Ġcorn er
Ġmic ro
Ġenter prise
Ġvess el
claim ed
Ġshar p
Ġmong ol
d y
m el
m ath
n amed
Ġt an
Ġt am
Ġt ie
Ġb ones
Ġp att
Ġd c
ol i
op hy
cl es
cl iffe
Ġpre ced
Ġsome wh
Ġcons um
Ġdiv ine
Ġ0 5
Ġ0 6
Ġlo an
ock ey
Ġmed ium
Ġmed iter
Ġ195 5
Ġ193 7
Ġdest ruction
Ġpost ed
Ġbrig ades
Ġpain ted
Ġtal king
Ġpromot e
Ġbi ographer
Ġwithd rew
Ġhun ting
Ġabs or
Ġcomplet ion
Ġmont ana
Ġbomb ard
Ġbrad ford
Ġdrum s
Ġdocument ary
Ġfred erick
Ġoverse as
Ġamate ur
Ġfount ain
Ġcris is
Ġsomewh at
Ġmediter ranean
b n
m us
r us
v is
z en
Ġt ick
on ica
Ġc u
Ġp ure
Ġl akes
Ġre ag
Ġg ab
le te
st r
ol es
Ġr ated
Ġal ph
Ġro xas
ab eth
Ġafter math
Ġpo inted
Ġunder stand
Ġfollow ers
Ġ0 7
Ġrev ol
Ġext ension
Ġmor rison
Ġlist en
Ġcirc ulation
uck y
Ġtow ers
Ġregular ly
Ġindic ated
Ġarchae ology
Ġhapp ened
Ġmary land
Ġbad ly
Ġconcern ed
Ġjer usal
Ġhundred s
Ġow en
Ġcontrovers ial
Ġextre me
Ġdin osaur
Ġemot ional
Ġdang erous
Ġsubmar ine
Ġcircum st
Ġloren zo
Ġjerusal em
k h
Ġt ong
Ġs isters
Ġw ants
Ġp age
Ġm ode
Ġd na
Ġh ong
ic ide
Ġn bc
Ġbe ar
Ġv ast
os a
Ġpro hib
Ġpro sec
ill ing
Ġex ha
ber ts
Ġtr uj
Ġad ams
Ġsc rap
Ġsp oke
Ġus s
Ġmar g
Ġag ed
Ġpart ial
amp s
Ġwar ning
Ġass umed
Ġmay a
Ġrel ative
Ġprodu ct
Ġinc om
Ġed die
Ġste f
ins on
Ġ195 4
Ġche n
Ġche ss
Ġ193 8
Ġstre ak
Ġposs ession
Ġfoot age
aur us
Ġ192 7
iven ess
Ġcover ing
Ġsett led
Ġsat ell
Ġcoll aps
Ġtrib ute
Ġsequ el
Ġplat oon
Ġinstit utions
Ġsurround ed
Ġguard ian
Ġclim ate
Ġgeorg ia
Ġsomal i
hew s
Ġmob ile
Ġincorpor ated
Ġbehav i
Ġnerv a
Ġcommem or
3 0
a ul
d al
f ri
Ġc ass
Ġb os
it ated
it als
Ġp ir
Ġm es
Ġm ack
ar f
Ġd iet
as hed
ent ional
ly ing
Ġfor cing
im ate
ot ic
Ġde em
us ing
Ġro berts
ant i
Ġcl o
Ġinter pret
Ġfl ash
Ġprodu cts
Ġsur pr
Ġdr iven
Ġstr and
Ġ17 8
Ġ196 2
Ġtem ples
Ġdirect ors
tend o
Ġje an
Ġinvol ving
Ġequ al
Ġrepresent ative
Ġlim it
Ġmeet ings
Ġredu ce
Ġesc ort
Ġthink ing
Ġ187 0
Ġnin tendo
Ġshell s
Ġdistrib uted
Ġess ential
Ġthr one
Ġapparent ly
Ġtrou ble
Ġencour aged
Ġdram atic
Ġeld er
Ġinspir ation
Ġrhyth m
Ġfranch ise
Ġmoz amb
Ġarchb ishop
Ġtruj illo
2 0
c ular
r ates
in als
Ġb one
or ous
Ġp ed
Ġm all
Ġl ies
Ġl anc
Ġg ust
st ate
ir a
Ġan iston
Ġse es
Ġpro port
ab les
Ġex isted
Ġad am
Ġcont ext
Ġam mun
te enth
Ġser ial
Ġpart ially
Ġinter action
Ġcar ter
Ġinst alled
Ġ195 8
Ġvide os
Ġhar ry
Ġav iation
Ġlaw s
Ġtre ated
ask a
Ġsat isf
Ġident ity
Ġstay ed
Ġdetail ed
Ġobserv ations
Ġhop ed
Ġlink ed
Ġlord s
Ġvot ed
Ġmas ters
Ġgi ant
Ġrhodes ian
Ġargent ina
Ġfung us
Ġunsuccess ful
Ġammun ition
p us
Ġs ulf
re es
Ġf ern
en burg
Ġd h
Ġd ag
Ġd anny
le ts
el ine
ur i
im et
Ġr aw
Ġis bn
Ġde an
if orm
ab led
Ġte x
Ġrec alled
Ġcan y
Ġ8 6
Ġeng ines
Ġsub t
Ġpres erved
Ġent itled
Ġ0 8
Ġste in
Ġ12 1
Ġoffic es
Ġgl ad
Ġ14 0
Ġsw it
Ġactiv ision
Ġsquad rons
Ġaud io
Ġaccom mod
Ġlangu ages
Ġrelationship s
Ġkore a
Ġtravel ed
Ġprotest s
Ġpan el
Ġadvent ure
Ġsle ep
Ġfix ed
Ġisab ella
Ġlenn on
Ġplun ket
Ġinfr ast
Ġs el
Ġs essions
Ġc raft
Ġb om
Ġb ah
Ġp ione
ic ate
ic ian
Ġr yan
Ġal g
Ġde leg
Ġk ong
Ġpl ane
Ġag ree
ang er
Ġup graded
Ġfl ower
Ġpo ets
Ġbr on
Ġbl ow
Ġform ing
Ġgen re
Ġpar ks
Ġmin istry
Ġrele g
Ġair borne
Ġ12 7
Ġob l
Ġmusic ians
Ġger mans
Ġdesign s
Ġmod ified
Ġ195 9
Ġhar bour
Ġvict ories
Ġcal vert
Ġweek end
Ġstand ards
Ġlow est
Ġeffect ively
Ġstat istics
Ġscient ific
Ġground s
Ġdestroy er
Ġpra ise
com ing
Ġcoll abor
Ġfund s
Ġexec uted
Ġinj ured
Ġabs ence
Ġthous and
Ġwear ing
Ġresident ial
Ġcrimin al
Ġiniti ative
Ġdiam ond
f c
n ight
s ch
Ġ eric
Ġc ave
Ġc ory
at ures
Ġm ud
Ġd ens
Ġd uc
Ġst u
Ġj r
Ġk ansas
Ġle uk
Ġsp ur
Ġme ga
Ġcol oss
ks on
Ġpar as
Ġeng ag
Ġrel ie
Ġapp ropri
Ġcre st
Ġexp osed
Ġwest ward
Ġmed al
Ġunivers al
Ġref ers
Ġhighway s
Ġsuggest ing
Ġdifficult ies
Ġnorm ally
Ġdeg rees
Ġvictor ian
je vo
Ġca es
Ġoppos ite
Ġprepar ation
Ġsomal ia
Ġstan ley
Ġassass ination
Ġcorre ct
Ġcitiz ens
Ġdownlo ad
Ġkits une
Ġinhabit ants
Ġnether lands
Ġsara jevo
s es
w ich
Ġ nd
Ġa z
Ġp ink
Ġh ast
Ġn a
ac le
Ġr ib
Ġj if
Ġk im
Ġk aw
ul s
Ġsh akes
ud es
ign ment
ens is
ens es
Ġform al
Ġver onica
Ġ9 00
Ġunder st
Ġact ual
int on
Ġgener ated
Ġ0 9
Ġjun ior
Ġel abor
Ġcommun ications
Ġequ ivalent
Ġrepresent ing
Ġinflu ences
Ġhon our
Ġcirc le
Ġstation ed
Ġclear ly
Ġreve als
Ġpract ices
Ġnorm an
Ġmom ents
Ġchall eng
Ġpict ures
Ġcab in
Ġenvironment al
Ġyank ovic
Ġoccas ions
Ġalle ged
Ġsatell ite
b ie
j i
p ent
r ich
t ime
Ġw ish
Ġc ov
Ġb rick
Ġm ast
Ġst able
Ġfor b
Ġis lam
ch ang
Ġcon g
Ġch a
ag as
um in
un a
ill ed
ud a
Ġother wise
Ġpo ison
Ġcan ter
Ġchar ity
Ġrem arked
Ġcons c
Ġmov ements
Ġarm ament
Ġele ven
Ġdiv or
Ġoper ate
Ġ16 5
Ġmet rop
Ġann ually
Ġrest ored
Ġ193 5
Ġ192 9
Ġyoun gest
Ġcy cle
Ġsol ar
Ġdefe ating
Ġnight ing
Ġwat ching
Ġsound s
Ġdon ald
Ġaff airs
Ġburn ed
Ġcou p
Ġ186 0
Ġheav en
Ġmaterial s
Ġoccup ation
Ġrequest ed
Ġwaters hed
Ġadj acent
Ġclar kson
Ġdistingu ished
Ġprotagon ist
Ġbeck ham
Ġdisapp o
Ġbehavi our
b el
b rien
p ut
Ġa ce
on o
Ġw et
Ġin a
Ġp ant
Ġh i
ro se
Ġg or
Ġst ood
ol itan
Ġr ag
Ġal ter
Ġse as
Ġk iss
em ia
od ies
Ġpro l
if er
Ġnot ably
Ġint ense
ru pted
Ġrec ur
Ġag es
Ġgr ace
Ġmus car
Ġwrit ings
Ġent h
Ġent ers
Ġpubl ishing
Ġrep r
Ġship ping
Ġimp rison
ann ah
uch i
Ġany one
Ġ191 1
Ġ193 2
Ġblack s
Ġdel iber
Ġpat ron
Ġgod d
Ġrepl ied
Ġ192 1
Ġrad cliffe
Ġcaus es
Ġtur rets
Ġrepresent atives
Ġburn ing
Ġ190 9
Ġreb els
Ġinn ov
Ġimpro v
Ġcho ir
Ġcompos er
Ġwild e
Ġple asure
Ġvisit ors
Ġsky e
Ġcanc er
Ġbehav ior
Ġreinforce ments
Ġcorpor ation
Ġpyram id
Ġjif na
Ġnighting ale
k o
m ate
m ont
p es
Ġ ille
Ġt ack
on ia
Ġw ic
Ġw ine
Ġc iting
Ġm ys
es se
ing e
il ation
id ers
ig ation
Ġcom ments
ish ment
ra f
Ġus d
Ġind ones
Ġrecord ings
Ġprodu ctions
ne th
Ġaust rian
Ġwill ing
Ġart ific
Ġinst ance
Ġke vin
Ġexp ensive
Ġra ise
Ġown er
Ġ191 2
Ġche ck
enc ing
Ġpred omin
Ġwil son
Ġhous ing
Ġinstit ution
Ġruss ia
Ġabs ol
Ġvot e
Ġens ure
Ġjournal ist
Ġpurp oses
Ġcompound s
Ġtact ics
oty pe
Ġcry st
crib ed
Ġcaval ry
Ġeliz abeth
Ġshakes pe
Ġcanter bury
c er
n g
Ġt ight
re al
Ġb ore
as a
il ly
Ġst yl
Ġr ig
Ġr ush
Ġan ch
Ġk w
ap se
Ġex cess
Ġen h
Ġper imeter
Ġfe ather
Ġres umed
Ġdis aster
Ġwar ren
Ġcar s
Ġcar go
Ġair line
Ġsever ely
Ġgener als
Ġ12 2
Ġorig ins
Ġob st
Ġexp and
Ġdisc ip
Ġla ud
Ġ193 1
Ġlaw rence
Ġclaim ing
itar ian
Ġinflu ential
Ġconv ention
Ġinterest s
Ġhol iday
Ġsat ur
Ġrecogn ised
Ġmex ican
Ġcondu ct
Ġsus pend
Ġmart ial
Ġinj uries
itz er
Ġobject ive
Ġrang es
Ġbul k
Ġban ai
Ġwa iting
Ġdra f
Ġrevolution ary
Ġthrow ing
Ġgram my
Ġcrus ad
iqu es
Ġcot ton
Ġoverw hel
Ġshakespe are
c ru
o z
u v
Ġt ale
he im
Ġs ale
Ġw ag
Ġw ings
Ġo ption
Ġb apt
Ġf oss
Ġto ll
ic it
Ġre ct
Ġg ri
ow itz
Ġk in
av da
Ġsh ield
Ġtr ained
ian g
Ġcl ock
Ġbo om
Ġte ach
Ġsp aces
Ġag o
Ġag ents
Ġco leman
Ġpr ice
Ġform ally
Ġnor way
Ġunder standing
Ġcar ries
Ġpar ish
Ġbu ck
Ġsupp orters
Ġpol and
Ġinst all
Ġmet all
Ġconsid ering
Ġbas es
Ġav o
Ġcur t
Ġformer ly
Ġtrad ing
Ġcat al
Ġtal es
Ġneed s
Ġmix ture
Ġcer atops
Ġcrew s
Ġgar rison
Ġinh g
Ġsched ule
Ġlegisl ation
Ġeth nic
Ġspecim en
yr in
Ġlb w
Ġminim um
Ġpropos al
Ġdelay ed
Ġprefer red
Ġjes us
Ġcircumst ances
Ġinfrast ructure
b ing
b urn
f ire
o is
w en
Ġt ast
Ġs ic
Ġc ake
Ġf ate
Ġm ant
Ġh ou
Ġh ob
Ġl t
Ġl as
Ġl ith
Ġn ur
Ġfor g
Ġan ime
Ġan ek
Ġv and
if ies
ate gy
ant e
Ġher g
Ġab d
Ġgo ffman
Ġplay off
are n
Ġpre fect
Ġgr an
Ġreg iments
Ġ0 2
Ġrep rodu
Ġport s
Ġ16 1
Ġstr ategy
Ġmusic ian
Ġimp ress
Ġger ard
Ġjohn ston
Ġpers u
ah l
Ġmod els
Ġconc ur
Ġclass ification
Ġpublic ations
Ġge off
Ġ193 3
Ġant ic
Ġref uge
Ġarr iving
Ġlist ing
Ġperiod s
Ġprop ag
Ġsal v
Ġord in
Ġtur b
Ġham let
Ġlab yrin
Ġheavy weight
Ġarg ues
Ġfall en
af ter
Ġfun er
Ġsele ct
Ġkil mer
for ced
Ġproper ties
Ġobject s
Ġprevent ed
Ġadop t
Ġdefend ing
Ġdefend ers
Ġjane iro
Ġbol var
cript ions
Ġseg ment
Ġstrateg ic
Ġdial ogue
Ġsche me
Ġindig en
Ġsap rang
Ġcambod ia
Ġdoct r
Ġqueens land
Ġemerg ency
Ġconvin ced
Ġacknow led
Ġdeem ed
Ġcoloss al
Ġina ug
a ver
w a
he red
er og
Ġw rap
Ġw imb
Ġb ce
is p
ro us
le ton
im a
ut or
et ime
Ġj ma
Ġan aly
em ies
Ġcomp lic
Ġcl inton
Ġman us
Ġman ga
Ġte en
Ġpre t
Ġpr erog
Ġqu ant
Ġcons ult
Ġfr ust
Ġfr aser
Ġ8 4
Ġph r
Ġimp ressed
led on
Ġstar ling
Ġuse ful
Ġtem porary
Ġext ent
Ġmo ore
Ġsw im
Ġlaw ton
Ġrepres ents
Ġcritic ised
Ġsurv ive
Ġfif teen
Ġtrav elled
Ġdepart ure
Ġnar rative
Ġlik ed
Ġtrib ut
Ġsus p
Ġkore ans
Ġdoc uments
Ġrichard son
Ġdisplay s
Ġsail ed
Ġsout heastern
Ġgro wn
Ġphot ograph
Ġda wn
Ġvehic le
Ġlabor atory
Ġstrugg le
Ġnaz i
Ġinstr uments
Ġspirit ual
Ġpalest ine
Ġsudden ly
Ġmeteor ological
Ġcany on
Ġanek nt
Ġwimb ledon
w are
Ġt ai
Ġa a
Ġa qu
Ġs b
Ġc ull
Ġc elt
at ropical
Ġm ail
es co
Ġd ick
Ġh ockey
il ty
Ġg ent
Ġbe aring
Ġr ar
Ġr av
Ġr ising
Ġk y
ap ers
ate ch
Ġmar gin
Ġpart ner
Ġsy mp
Ġsm ooth
Ġdr iver
Ġlo ose
Ġsl ide
Ġob v
Ġprom pted
Ġdel aware
Ġorgan ised
Ġchrist opher
Ġpat rol
Ġhar rison
bo x
Ġfurther more
Ġvill ages
Ġcast ing
Ġdev ot
Ġmal ays
Ġround s
Ġaud iences
Ġcond em
Ġsequ ences
Ġpoor ly
Ġestablish ing
Ġbatter ies
Ġwr ight
Ġextr atropical
Ġadvent ures
Ġrecomm end
Ġadvert ising
Ġfal se
Ġreserv oir
Ġrebu ilt
Ġdecor ated
Ġsubstant ial
Ġpupp et
Ġwarri or
Ġpup ils
Ġfern and
b ound
e u
h ist
w er
in ery
Ġb un
Ġf ert
Ġp ull
Ġd ak
Ġn urs
il st
Ġth or
ol ith
Ġk omb
op l
Ġun iform
Ġall ies
Ġover l
Ġco aching
Ġout break
ren e
Ġgr ave
Ġass isted
Ġ9 2
Ġunder w
Ġpar am
Ġeng age
Ġgu ilty
Ġ0 3
Ġke amy
Ġpass ion
Ġtem por
Ġconsid ers
Ġwater fall
Ġchild hood
Ġarr ive
Ġintern et
Ġorgan isation
Ġposs ess
Ġbelie ving
Ġevery one
Ġtur tle
Ġsit uated
Ġdoes n
Ġatl anta
Ġhit ler
Ġber lin
ros cop
Ġlou d
Ġimag ine
Ġadminist rative
Ġgraph ics
Ġevac uation
Ġdepend ing
Ġpurs ue
Ġmoder ate
Ġinte gr
Ġsimultane ously
Ġartific ial
Ġindigen ous
Ġmanus cript
Ġkomb at
g le
g ets
h ol
o ok
v ant
w ick
Ġt ide
in us
Ġs as
Ġb ag
Ġf ishing
Ġf asc
Ġm k
Ġm ouse
ar u
Ġd ont
ro it
Ġl ose
Ġl ists
Ġl anes
Ġn it
Ġn ichol
il i
Ġg ary
om a
Ġu st
id ation
Ġas c
th osaurus
Ġwh ilst
Ġcon clusion
ag er
ab oration
Ġar j
Ġsc attered
og y
Ġab und
Ġres idence
Ġres igned
ric ted
Ġinter pre
Ġatt ained
Ġwar ships
Ġthere after
Ġgen e
Ġele ctions
Ġmill er
Ġmain land
Ġ16 2
Ġcontin ental
ather ine
Ġhel met
Ġwal king
Ġ195 7
Ġhar m
Ġhar bor
Ġdiffer ences
Ġamong st
Ġ192 8
Ġdet roit
Ġcompet e
Ġread ers
Ġcivil ians
Ġtechn iques
Ġinterest ing
onom y
Ġcoll aboration
Ġinform ed
Ġcam er
Ġachie ve
Ġfer ry
Ġarab ic
Ġwit ch
Ġtail ed
Ġexperi ences
Ġsav ed
Ġencoun tered
Ġorb it
hu a
Ġraj ne
Ġresear chers
Ġplunket ts
Ġcory thosaurus
Ġgodd ess
Ġsatur day
d les
d ale
r ants
u able
Ġt enth
Ġs q
Ġw ander
Ġc ow
Ġc bs
Ġb aker
Ġf ia
Ġm ask
Ġh ub
Ġg ill
Ġwas n
Ġas ide
ol ay
ow ed
Ġal ive
ut z
Ġse ct
Ġsu icide
Ġpro ve
ap ore
Ġpl us
ust er
Ġher ald
Ġam az
Ġall ah
Ġres ign
Ġev olution
Ġpar aly
Ġnorth ward
ck i
Ġair field
Ġ12 5
Ġsing apore
Ġdep icts
Ġ16 6
Ġorigin ated
Ġ15 5
Ġprov ision
Ġfur t
Ġconf ront
Ġprom pt
Ġrest rict
Ġ192 6
Ġlook s
Ġpal my
Ġphil ip
Ġvo iced
Ġstri king
Ġbig gest
Ġjew s
Ġcreat ive
Ġkil ome
Ġindic ating
ca a
Ġcertain ly
Ġrang ing
Ġobserv atory
Ġdeterm ine
Ġweap on
Ġsac red
Ġtouchdown s
Ġdemonst rated
Ġpremi ere
Ġconspir acy
Ġmarl borough
Ġexpos ure
Ġrebell ion
Ġprerog ative
c our
l ife
r ating
r ator
r abb
v a
v n
w estern
Ġs aves
Ġm bar
Ġd ave
Ġh ok
Ġn l
Ġre nder
Ġg ates
el in
ac les
Ġr ic
Ġr ates
ow ie
Ġsu it
Ġtr u
Ġtr ick
Ġbut ter
Ġall en
Ġfe i
Ġres olution
Ġup set
Ġfl ot
Ġpe ters
Ġchar ged
Ġpar ach
Ġbu ff
olog ies
Ġsur ge
Ġ10 1
Ġrep air
Ġdr ain
Ġmill enn
Ġter rain
Ġdescrib e
ism s
Ġconf lic
Ġ193 4
Ġconstru ct
Ġcle ared
Ġsold ier
Ġexper t
Ġput ting
Ġfact ors
Ġol me
Ġrank ing
Ġclos est
Ġcru ise
Ġ185 0
Ġviol ent
Ġgar ca
Ġmel ody
Ġdro ve
Ġdisp at
Ġlay er
Ġdisplay ed
Ġfrequ ent
Ġarchitect ural
Ġsyn ag
Ġopportun ities
Ġelev ation
Ġillust rated
Ġneut ral
Ġconsequ ently
Ġterror ist
Ġrick y
Ġphill ies
Ġpredecess or
Ġprin cess
Ġstef ani
g am
z ing
Ġc ode
Ġc atech
Ġd ies
Ġh ars
ro t
Ġl iv
Ġl un
Ġbe ars
Ġhe nd
Ġhe aring
Ġfor ty
ir id
iv an
Ġr ide
ow a
Ġk am
Ġch anc
Ġsh ik
