{"<|endoftext|>":0,"<|pad|>":1,"!":2,"\"":3,"#":4,"$":5,"%":6,"&":7,"'":8,"(":9,")":10,"*":11,"+":12,",":13,"-":14,".":15,"/":16,"0":17,"1":18,"2":19,"3":20,"4":21,"5":22,"6":23,"7":24,"8":25,"9":26,":":27,";":28,"<":29,"=":30,">":31,"?":32,"@":33,"A":34,"B":35,"C":36,"D":37,"E":38,"F":39,"G":40,"H":41,"I":42,"J":43,"K":44,"L":45,"M":46,"N":47,"O":48,"P":49,"Q":50,"R":51,"S":52,"T":53,"U":54,"V":55,"W":56,"X":57,"Y":58,"Z":59,"[":60,"\\":61,"]":62,"^":63,"_":64,"`":65,"a":66,"b":67,"c":68,"d":69,"e":70,"f":71,"g":72,"h":73,"i":74,"j":75,"k":76,"l":77,"m":78,"n":79,"o":80,"p":81,"q":82,"r":83,"s":84,"t":85,"u":86,"v":87,"w":88,"x":89,"y":90,"z":91,"{":92,"|":93,"}":94,"~":95,"¡":96,"¢":97,"£":98,"¤":99,"¥":100,"¦":101,"§":102,"¨":103,"©":104,"ª":105,"«":106,"¬":107,"®":108,"¯":109,"°":110,"±":111,"²":112,"³":113,"´":114,"µ":115,"¶":116,"·":117,"¸":118,"¹":119,"º":120,"»":121,"¼":122,"½":123,"¾":124,"¿":125,"À":126,"Á":127,"Â":128,"Ã":129,"Ä":130,"Å":131,"Æ":132,"Ç":133,"È":134,"É":135,"Ê":136,"Ë":137,"Ì":138,"Í":139,"Î":140,"Ï":141,"Ð":142,"Ñ":143,"Ò":144,"Ó":145,"Ô":146,"Õ":147,"Ö":148,"×":149,"Ø":150,"Ù":151,"Ú":152,"Û":153,"Ü":154,"Ý":155,"Þ":156,"ß":157,"à":158,"á":159,"â":160,"ã":161,"ä":162,"å":163,"æ":164,"ç":165,"è":166,"é":167,"ê":168,"ë":169,"ì":170,"í":171,"î":172,"ï":173,"ð":174,"ñ":175,"ò":176,"ó":177,"ô":178,"õ":179,"ö":180,"÷":181,"ø":182,"ù":183,"ú":184,"û":185,"ü":186,"ý":187,"þ":188,"ÿ":189,"Ā":190,"ā":191,"Ă":192,"ă":193,"Ą":194,"ą":195,"Ć":196,"ć":197,"Ĉ":198,"ĉ":199,"Ċ":200,"ċ":201,"Č":202,"č":203,"Ď":204,"ď":205,"Đ":206,"đ":207,"Ē":208,"ē":209,"Ĕ":210,"ĕ":211,"Ė":212,"ė":213,"Ę":214,"ę":215,"Ě":216,"ě":217,"Ĝ":218,"ĝ":219,"Ğ":220,"ğ":221,"Ġ":222,"ġ":223,"Ģ":224,"ģ":225,"Ĥ":226,"ĥ":227,"Ħ":228,"ħ":229,"Ĩ":230,"ĩ":231,"Ī":232,"ī":233,"Ĭ":234,"ĭ":235,"Į":236,"į":237,"İ":238,"ı":239,"Ĳ":240,"ĳ":241,"Ĵ":242,"ĵ":243,"Ķ":244,"ķ":245,"ĸ":246,"Ĺ":247,"ĺ":248,"Ļ":249,"ļ":250,"Ľ":251,"ľ":252,"Ŀ":253,"ŀ":254,"Ł":255,"ł":256,"Ń":257,"Ġt":258,"Ġa":259,"he":260,"in":261,"Ġthe":262,"er":263,"Ġs":264,"on":265,"Ġ,":266,"re":267,"Ġw":268,"Ġc":269,"Ġo":270,"ed":271,"Ġb":272,"nd":273,"Ġ.":274,"Ġf":275,"at":276,"it":277,"Ġin":278,"or":279,"en":280,"Ġp":281,"Ġm":282,"is":283,"es":284,"ar":285,"Ġof":286,"an":287,"al":288,"Ġd":289,"ing":290,"Ġand":291,"as":292,"Ġh":293,"ro":294,"Ġto":295,"ic":296,"Ġl":297,"ion":298,"ou":299,"Ġn":300,"Ġre":301,"il":302,"Ġth":303,"Ġe":304,"Ġg":305,"ent":306,"le":307,"Ġ\"":308,"Ġ1":309,"st":310,"am":311,"el":312,"om":313,"ad":314,"Ġon":315,"ac":316,"Ġwas":317,"Ġst":318,"Ġbe":319,"ur":320,"ly":321,"Ġhe":322,"Ġu":323,"id":324,"Ġfor":325,"im":326,"Ġas":327,"Ġ'":328,"ol":329,"ir":330,"iv":331,"ter":332,"ig":333,"Ġ-":334,"th":335,"ct":336,"Ġr":337,"ow":338,"Ġal":339,"ay":340,"ith":341,"Ġ2":342,"ut":343,"ver":344,"ot":345,"et":346,"Ġwith":347,"ation":348,"Ġthat":349,"ce":350,"Ġit":351,"Ġis":352,"Ġwh":353,"Ġj":354,"ch":355,"Ġcon":356,"Ġat":357,"Ġby":358,"Ġan":359,"Ġde":360,"Ġse":361,"us":362,"Ġk":363,"ul":364,"Ġv":365,"Ġch":366,"and":367,"em":368,"rom":369,"ain":370,"os":371,"ers":372,"Ġ19":373,"ag":374,"av":375,"Ġcom":376,"Ġhis":377,"her":378,"est":379,"um":380,"00":381,"Ġfrom":382,"ri":383,"od":384,"Ġsu":385,"Ġpro":386,"pe":387,"if":388,"ist":389,"Ġy":390,"un":391,"ere":392,"res":393,"ap":394,"ill":395,"Ġne":396,"se":397,"ld":398,"ies":399,"ort":400,"ore":401,"op":402,"Ġwere":403,"Ġsh":404,"Ġro":405,"igh":406,"ak":407,"Ġor":408,"Ġpl":409,"ate":410,"ong":411,"all":412,"ab":413,"ard":414,"qu":415,"ich":416,"art":417,"Ġun":418,"Ġex":419,"ber":420,"ant":421,"ity":422,"gh":423,"ated":424,"ud":425,"Ġle":426,"Ġar":427,"oc":428,"ame":429,"ess":430,"Ġare":431,"Ġtr":432,"ive":433,"Ġhad":434,"ack":435,"ip":436,"ie":437,"rou":438,"ian":439,"ast":440,"Ġwhich":441,"red":442,"Ġnot":443,"our":444,"ment":445,"ge":446,"pt":447,"ov":448,"Ġaf":449,"ine":450,"rit":451,"cl":452,"ust":453,"ial":454,"ight":455,"ost":456,"ia":457,"Ġwhe":458,"ell":459,"ord":460,"Ġ3":461,"oun":462,"ther":463,"ical":464,"ish":465,"ave":466,"Ġcomp":467,"pp":468,"ary":469,"Ġcl":470,"Ġthis":471,"Ġbut":472,"Ġad":473,"Ġsc":474,"cc":475,"Ġfir":476,"Ġ200":477,"og":478,"Ġtw":479,"Ġint":480,"Ġen":481,"Ġwor":482,"ction":483,"Ġtheir":484,"Ġcont":485,"ous":486,"Ġfirst":487,"Ġher":488,"Ġab":489,"Ġbo":490,"Ġits":491,"ra":492,"ide":493,"so":494,"ould":495,"Ġman":496,"Ġi":497,"Ġam":498,"Ġafter":499,"ure":500,"Ġall":501,"Ġone":502,"Ġthey":503,"per":504,"Ġ20":505,"ign":506,"Ġte":507,"ome":508,"Ġper":509,"Ġalso":510,"hed":511,"out":512,"Ġsp":513,"ok":514,"ition":515,"ru":516,"ass":517,"Ġshe":518,"Ġus":519,"te":520,"Ġfe":521,"Ġcomm":522,"Ġrec":523,"Ġtim":524,"ater":525,"ire":526,"ue":527,"Ġtwo":528,"Ġnew":529,"age":530,"ub":531,"ond":532,"Ġmar":533,"own":534,"ry":535,"Ġag":536,"orm":537,"Ġres":538,"Ġhave":539,"ree":540,"Ġ4":541,"Ġdes":542,"Ġme":543,"ear":544,"Ġ5":545,"Ġim":546,"Ġbeen":547,"Ġser":548,"Ġhas":549,"Ġbec":550,"Ġgo":551,"Ġpart":552,"Ġdis":553,"ans":554,"ted":555,"uring":556,"pl":557,"Ġwho":558,"ally":559,"ence":560,"ough":561,"ance":562,"ile":563,"du":564,"Ġplay":565,"are":566,"Ġ18":567,"Ġoff":568,"Ġover":569,"land":570,"Ġother":571,"iz":572,"ice":573,"Ġyear":574,"ach":575,"Ġev":576,"ff":577,"ations":578,"ect":579,"Ġwe":580,"ely":581,"ade":582,"Ġco":583,"ory":584,"clud":585,"ik":586,"Ġ201":587,"ang":588,"Ġfin":589,"Ġcol":590,"ib":591,"Ġout":592,"Ġup":593,"ts":594,"wn":595,"ound":596,"Ġpre":597,"ric":598,"ions":599,"urn":600,"ace":601,"Ġduring":602,"Ġinter":603,"Ġfl":604,"ite":605,"Ġwhen":606,"Ġinclud":607,"Ġpo":608,"Ġcent":609,"Ġtime":610,"Ġatt":611,"ress":612,"ens":613,"nder":614,"Ġind":615,"Ġear":616,"Ġspe":617,"act":618,"we":619,"Ġcan":620,"Ġinto":621,"Ġap":622,"ks":623,"Ġsa":624,"ces":625,"Ġbr":626,"ult":627,"one":628,"Ġsec":629,"ount":630,"ward":631,"Ġmore":632,"Ġ6":633,"ced":634,"ren":635,"man":636,"Ġwould":637,"oll":638,"amp":639,"ied":640,"Ġpr":641,"Ġbl":642,"Ġsong":643,"rough":644,"Ġpe":645,"Ġform":646,"Ġwar":647,"port":648,"Ġhim":649,"Ġkn":650,"able":651,"Ġ7":652,"ited":653,"Ġsou":654,"Ġno":655,"ail":656,"ason":657,"Ġgr":658,"ings":659,"Ġmost":660,"Ġchar":661,"Ġqu":662,"way":663,"iss":664,"les":665,"ased":666,"Ġsome":667,"Ġrem":668,"Ġbet":669,"ase":670,"ents":671,"ates":672,"Ġjo":673,"Ġfil":674,"ious":675,"round":676,"ose":677,"rib":678,"Ġnor":679,"Ġass":680,"att":681,"Ġmay":682,"Ġthem":683,"Ġwhile":684,"Ġmus":685,"ral":686,"ix":687,"Ġver":688,"Ġthere":689,"ild":690,"gan":691,"Ġonly":692,"ors":693,"Ġ9":694,"Ġunder":695,"Ġreg":696,"Ġgame":697,"Ġcar":698,"ake":699,"Ġacc":700,"Ġagain":701,"ath":702,"Ġhow":703,"ered":704,"form":705,"ember":706,"Ġso":707,"Ġthree":708,"Ġcons":709,"Ġgen":710,"Ġfr":711,"vel":712,"als":713,"Ġpar":714,"Ġ8":715,"Ġem":716,"aus":717,"ved":718,"ve":719,"old":720,"fer":721,"Ġfilm":722,"eric":723,"ood":724,"Ġabout":725,"ubl":726,"Ġlater":727,"ind":728,"Ġthrough":729,"ollow":730,"Ġeng":731,"Ġrecord":732,"Ġbu":733,"Ġac":734,"reat":735,"Ġday":736,"Ġfollow":737,"Ġrel":738,"ters":739,"ph":740,"Ġnorth":741,"Ġend":742,"aw":743,"Ġact":744,"ween":745,"Ġ199":746,"Ġbetween":747,"Ġmon":748,"ug":749,"Ġwork":750,"Ġdef":751,"Ġhigh":752,"ational":753,"ick":754,"Ġma":755,"Ġthan":756,"ons":757,"hip":758,"Ġret":759,"ision":760,"Ġseason":761,"ck":762,"ft":763,"Ġdo":764,"Ġapp":765,"Ġnum":766,"Ġsy":767,"Ġlar":768,"ict":769,"Ġpos":770,"Ġsub":771,"Ġprodu":772,"olog":773,"Ġmin":774,"Ġcity":775,"fore":776,"Ġ00":777,"Ġgu":778,"Ġameric":779,"ss":780,"cted":781,"Ġsecond":782,"ning":783,"Ġmov":784,"Ġwhere":785,"Ġwrit":786,"Ġfour":787,"iew":788,"Ġspec":789,"ular":790,"Ġsouth":791,"Ġmade":792,"Ġrele":793,"Ġbro":794,"Ġloc":795,"ne":796,"Ġinc":797,"end":798,"ames":799,"Ġz":800,"ating":801,"Ġph":802,"Ġpres":803,"Ġbefore":804,"ury":805,"ished":806,"Ġworld":807,"ike":808,"Ġcap":809,"Ġsur":810,"Ġent":811,"Ġpubl":812,"Ġair":813,"Ġbatt":814,"Ġarm":815,"Ġalb":816,"rop":817,"Ġsever":818,"Ġsuch":819,"ived":820,"Ġsupp":821,"Ġsm":822,"int":823,"ines":824,"Ġele":825,"ll":826,"Ġback":827,"ual":828,"hes":829,"Ġthese":830,"tern":831,"Ġused":832,"Ġcall":833,"Ġ000":834,"Ġed":835,"ute":836,"Ġgener":837,"ily":838,"Ġep":839,"Ġboth":840,"Ġdiv":841,"Ġbeing":842,"iel":843,"Ġalbum":844,"Ġappe":845,"ific":846,"Ġfound":847,"Ġhist":848,"ever":849,"Ġ0":850,"ane":851,"Ġseries":852,"io":853,"Ġ10":854,"Ġbrit":855,"Ġste":856,"ics":857,"Ġpol":858,"Ġ12":859,"Ġsaid":860,"Ġop":861,"Ġrep":862,"Ġsing":863,"Ġyears":864,"Ġmany":865,"Ġtrans":866,"Ġset":867,"ank":868,"Ġdec":869,"Ġcount":870,"Ġinv":871,"Ġwell":872,"ained":873,"Ġthen":874,"Ġadd":875,"Ġhowever":876,"Ġnumber":877,"Ġdire":878,"Ġdep":879,"Ġaust":880,"iver":881,"Ġbel":882,"Ġsch":883,"Ġagainst":884,"Ġlong":885,"Ġrev":886,"Ġdr":887,"Ġteam":888,"Ġwill":889,"Ġinf":890,"Ġhead":891,"other":892,"Ġsim":893,"ert":894,"ars":895,"ins":896,"Ġseveral":897,"Ġstate":898,"Ġlo":899,"Ġstud":900,"ife":901,"ale":902,"ton":903,"Ġpop":904,"Ġrece":905,"Ġearly":906,"ised":907,"Ġmill":908,"velop":909,"Ġoper":910,"ause":911,"ince":912,"Ġart":913,"Ġmil":914,"ten":915,"Ġcro":916,"Ġsl":917,"Ġyou":918,"Ġter":919,"ier":920,"Ġmain":921,"its":922,"ird":923,"Ġperform":924,"Ġincluding":925,"ities":926,"hn":927,"Ġcre":928,"ode":929,"Ġdevelop":930,"Ġbecame":931,"Ġorig":932,"ise":933,"ys":934,"Ġdown":935,"Ġknown":936,"Ġinst":937,"ject":938,"Ġport":939,"Ġunited":940,"ident":941,"urch":942,"Ġdesc":943,"ful":944,"ures":945,"vern":946,"Ġest":947,"Ġepis":948,"yl":949,"Ġ16":950,"Ġob":951,"ower":952,"air":953,"Ġship":954,"Ġcharac":955,"orn":956,"Ġmet":957,"Ġmat":958,"Ġ198":959,"Ġstr":960,"Ġcontin":961,"Ġmusic":962,"Ġland":963,"ement":964,"Ġshow":965,"ield":966,"Ġorigin":967,"az":968,"Ġ194":969,"elf":970,"Ġnov":971,"though":972,"Ġ15":973,"Ġalthough":974,"Ġdist":975,"Ġgovern":976,"Ġconst":977,"ont":978,"ather":979,"Ġimp":980,"Ġcrit":981,"Ġ11":982,"Ġfollowing":983,"ern":984,"Ġlike":985,"und":986,"Ġbegan":987,"Ġrun":988,"au":989,"Ġalong":990,"til":991,"Ġlead":992,"Ġdid":993,"Ġcould":994,"led":995,"Ġthough":996,"Ġcompan":997,"Ġamerican":998,"ann":999,"Ġ17":1000,"Ġcomple":1001,"uch":1002,"Ġaustral":1003,"iet":1004,"ool":1005,"ork":1006,"ock":1007,"Ġsign":1008,"ared":1009,"Ġjun":1010,"Ġnear":1011,"itt":1012,"Ġger":1013,"Ġke":1014,"Ġcare":1015,"ative":1016,"Ġold":1017,"Ġcentury":1018,"Ġbritish":1019,"emb":1020,"roup":1021,"Ġopen":1022,"Ġprov":1023,"ued":1024,"der":1025,"Ġ197":1026,"Ġdesign":1027,"ired":1028,"Ġjohn":1029,"Ġexp":1030,"up":1031,"Ġ196":1032,"Ġpers":1033,"Ġdif":1034,"Ġdisc":1035,"ually":1036,"Ġgroup":1037,"Ġchr":1038,"ains":1039,"ments":1040,"Ġbecause":1041,"ized":1042,"Ġcr":1043,"Ġsix":1044,"oy":1045,"son":1046,"Ġever":1047,"ined":1048,"Ġbar":1049,"Ġarea":1050,"Ġking":1051,"Ġuntil":1052,"ivers":1053,"Ġvar":1054,"aking":1055,"Ġcalled":1056,"Ġany":1057,"Ġpeop":1058,"uc":1059,"ient":1060,"Ġwest":1061,"Ġreturn":1062,"Ġwin":1063,"Ġfam":1064,"Ġins":1065,"Ġnational":1066,"row":1067,"Ġfeat":1068,"ah":1069,"Ġstates":1070,"ull":1071,"Ġmaj":1072,"Ġkm":1073,"ley":1074,"Ġepisode":1075,"ange":1076,"Ġdescrib":1077,"Ġoffic":1078,"ured":1079,"Ġattack":1080,"Ġprev":1081,"Ġdam":1082,"Ġstart":1083,"Ġchurch":1084,"Ġsince":1085,"ccess":1086,"gr":1087,"Ġpass":1088,"Ġadv":1089,"Ġroad":1090,"Ġir":1091,"Ġpeople":1092,"els":1093,"Ġaround":1094,"iam":1095,"ke":1096,"Ġaug":1097,"Ġel":1098,"gest":1099,"Ġhel":1100,"ists":1101,"ided":1102,"amed":1103,"Ġcommand":1104,"Ġmod":1105,"Ġeach":1106,"Ġju":1107,"Ġann":1108,"Ġmajor":1109,"Ġwee":1110,"Ġty":1111,"Ġaugust":1112,"Ġra":1113,"oot":1114,"Ġsame":1115,"Ġwhat":1116,"ouse":1117,"Ġsept":1118,"Ġstar":1119,"ially":1120,"Ġriver":1121,"Ġsupport":1122,"Ġsmall":1123,"ible":1124,"xt":1125,"ism":1126,"cept":1127,"ty":1128,"ove":1129,"Ġocc":1130,"rap":1131,"Ġown":1132,"Ġseptember":1133,"Ġ13":1134,"Ġuse":1135,"Ġfive":1136,"Ġeff":1137,"Ġconc":1138,"Ġmiss":1139,"anc":1140,"Ġserv":1141,"Ġreleased":1142,"osed":1143,"Ġif":1144,"Ġanother":1145,"Ġmillion":1146,"Ġjust":1147,"Ġlife":1148,"Ġstorm":1149,"Ġsuccess":1150,"Ġbest":1151,"Ġmed":1152,"Ġcamp":1153,"ium":1154,"Ġlarge":1155,"wards":1156,"Ġcompany":1157,"Ġclass":1158,"ets":1159,"Ġschool":1160,"Ġgerman":1161,"Ġbook":1162,"Ġgreat":1163,"Ġla":1164,"aced":1165,"Ġtri":1166,"Ġfur":1167,"Ġcour":1168,"Ġline":1169,"Ġconf":1170,"stem":1171,"Ġtem":1172,"ues":1173,"Ġtown":1174,"Ġeast":1175,"Ġeu":1176,"Ġwal":1177,"Ġpublic":1178,"Ġdirect":1179,"enn":1180,"Ġgun":1181,"Ġconsid":1182,"Ġmid":1183,"Ġturn":1184,"Ġprom":1185,"Ġfinal":1186,"Ġcolle":1187,"aining":1188,"Ġcontro":1189,"ron":1190,"Ġreport":1191,"Ġext":1192,"ians":1193,"ven":1194,"Ġ195":1195,"ina":1196,"ilt":1197,"ms":1198,"ped":1199,"Ġmag":1200,"Ġgre":1201,"Ġcharacter":1202,"Ġjune":1203,"Ġnow":1204,"Ġsystem":1205,"Ġbre":1206,"ution":1207,"ats":1208,"Ġmo":1209,"Ġmy":1210,"Ġgovernment":1211,"ology":1212,"Ġway":1213,"ives":1214,"ropical":1215,"Ġdue":1216,"Ġgl":1217,"Ġoct":1218,"Ġ191":1219,"over":1220,"ble":1221,"Ġjan":1222,"Ġcor":1223,"ark":1224,"Ġge":1225,"Ġche":1226,"Ġrest":1227,"aving":1228,"Ġ14":1229,"Ġtit":1230,"Ġlast":1231,"Ġlate":1232,"ink":1233,"ately":1234,"Ġmen":1235,"ural":1236,"Ġshort":1237,"Ġeven":1238,"ting":1239,"Ġisland":1240,"Ġ193":1241,"ony":1242,"Ġgames":1243,"Ġhistory":1244,"Ġmuch":1245,"uth":1246,"avy":1247,"Ġtook":1248,"ae":1249,"Ġhum":1250,"ically":1251,"Ġmark":1252,"Ġdivision":1253,"Ġbuild":1254,"ger":1255,"Ġhal":1256,"uary":1257,"ored":1258,"Ġblack":1259,"Ġwater":1260,"Ġchild":1261,"Ġhome":1262,"ober":1263,"Ġstre":1264,"Ġdem":1265,"Ġant":1266,"Ġname":1267,"Ġgeneral":1268,"Ġvery":1269,"Ġes":1270,"Ġoctober":1271,"ified":1272,"Ġpartic":1273,"ep":1274,"Ġunivers":1275,"ague":1276,"ball":1277,"Ġstru":1278,"oss":1279,"by":1280,"Ġvide":1281,"Ġrom":1282,"Ġwithin":1283,"Ġreceived":1284,"lish":1285,"Ġdeath":1286,"Ġtrack":1287,"be":1288,"Ġii":1289,"Ġjuly":1290,"Ġtop":1291,"Ġposition":1292,"Ġreview":1293,"empt":1294,"Ġplayed":1295,"Ġcapt":1296,"ash":1297,"Ġref":1298,"Ġsqu":1299,"Ġmarch":1300,"Ġdel":1301,"Ġnort":1302,"Ġmor":1303,"pect":1304,"Ġaccord":1305,"Ġincre":1306,"ility":1307,"ner":1308,"iving":1309,"Ġarr":1310,"ants":1311,"ional":1312,"get":1313,"ime":1314,"Ġvis":1315,"Ġarch":1316,"Ġbas":1317,"aged":1318,"cess":1319,"dom":1320,"Ġintern":1321,"Ġsw":1322,"Ġbeg":1323,"Ġ25":1324,"ops":1325,"Ġjanuary":1326,"erv":1327,"Ġorgan":1328,"ages":1329,"Ġdescribed":1330,"Ġtropical":1331,"aim":1332,"ling":1333,"Ġchrist":1334,"Ġpower":1335,"Ġthird":1336,"ides":1337,"Ġincluded":1338,"ril":1339,"Ġsingle":1340,"ively":1341,"Ġkill":1342,"Ġleg":1343,"Ġaccording":1344,"Ġpat":1345,"ody":1346,"Ġ30":1347,"Ġappear":1348,"Ġdest":1349,"Ġperson":1350,"Ġwind":1351,"Ġappro":1352,"ctions":1353,"Ġhar":1354,"Ġwon":1355,"Ġhur":1356,"Ġconstru":1357,"hen":1358,"sion":1359,"Ġevent":1360,"Ġtimes":1361,"Ġchamp":1362,"Ġleft":1363,"Ġvict":1364,"Ġfamily":1365,"rote":1366,"ple":1367,"Ġattempt":1368,"Ġallow":1369,"apan":1370,"Ġbased":1371,"Ġapril":1372,"ital":1373,"Ġposs":1374,"..":1375,"Ġdece":1376,"Ġspecies":1377,"Ġhand":1378,"Ġresp":1379,"Ġjapan":1380,"Ġmilit":1381,"Ġvideo":1382,"ham":1383,"Ġplace":1384,"Ġwhite":1385,"Ġclub":1386,"Ġfore":1387,"Ġlist":1388,"Ġbuilt":1389,"ently":1390,"Ġnovember":1391,"Ġsk":1392,"Ġaddition":1393,"Ġleague":1394,"Ġnamed":1395,"ai":1396,"bo":1397,"omin":1398,"iod":1399,"Ġwrote":1400,"Ġ...":1401,"Ġexpl":1402,"Ġprote":1403,"ograp":1404,"Ġfurther":1405,"Ġx":1406,"akes":1407,"Ġbelie":1408,"Ġprevious":1409,"Ġtech":1410,"Ġav":1411,"Ġyork":1412,"ched":1413,"Ġthose":1414,"Ġroute":1415,"Ġdiffer":1416,"Ġbus":1417,"Ġlight":1418,"Ġperiod":1419,"Ġeas":1420,"Ġcommun":1421,"Ġbattle":1422,"Ġnext":1423,"tend":1424,"ances":1425,"Ġestab":1426,"Ġstory":1427,"Ġcur":1428,"Ġhouse":1429,"Ġfoot":1430,"Ġval":1431,"rench":1432,"Ġer":1433,"Ġcal":1434,"Ġcommon":1435,"raft":1436,"mber":1437,"Ġsoc":1438,"Ġpost":1439,"Ġeuro":1440,"Ġdecember":1441,"ness":1442,"arch":1443,"Ġled":1444,"ption":1445,"ulation":1446,"med":1447,"Ġgod":1448,"Ġmonth":1449,"Ġrepl":1450,"ps":1451,"Ġsent":1452,"pend":1453,"na":1454,"Ġbattal":1455,"ached":1456,"Ġforces":1457,"Ġang":1458,"Ġrequ":1459,"Ġforce":1460,"ene":1461,"Ġred":1462,"ilar":1463,"ster":1464,"Ġcame":1465,"Ġarmy":1466,"osp":1467,"Ġsay":1468,"Ġmake":1469,"Ġstill":1470,"min":1471,"Ġside":1472,"Ġamong":1473,"ison":1474,"Ġtour":1475,"ards":1476,"ler":1477,"Ġfrench":1478,"Ġoriginal":1479,"aur":1480,"hy":1481,"Ġ192":1482,"Ġband":1483,"ense":1484,"idge":1485,"Ġweek":1486,"ged":1487,"Ġopp":1488,"Ġvill":1489,"hel":1490,"ese":1491,"Ġlocal":1492,"Ġauth":1493,"Ġfield":1494,"iven":1495,"Ġrad":1496,"Ġinit":1497,"let":1498,"Ġmilitary":1499,"self":1500,"eder":1501,"Ġhistor":1502,"Ġeurope":1503,"Ġ100":1504,"Ġyoun":1505,"Ġsimilar":1506,"Ġfire":1507,"Ġmer":1508,"Ġstand":1509,"que":1510,"Ġengland":1511,"Ġsee":1512,"atter":1513,"Ġtele":1514,"Ġcle":1515,"Ġright":1516,"Ġsom":1517,"Ġcy":1518,"Ġtro":1519,"Ġsol":1520,"Ġ2010":1521,"Ġsold":1522,"Ġtot":1523,"thing":1524,"Ġpresent":1525,"Ġlaw":1526,"Ġview":1527,"aken":1528,"ences":1529,"Ġreal":1530,"Ġje":1531,"Ġfar":1532,"ature":1533,"Ġmemb":1534,"Ġlow":1535,"Ġrole":1536,"mer":1537,"por":1538,"Ġfew":1539,"ience":1540,"bert":1541,"Ġuniversity":1542,"Ġsug":1543,"Ġlitt":1544,"Ġevery":1545,"Ġ2008":1546,"Ġformer":1547,"Ġcontinued":1548,"bs":1549,"Ġsuper":1550,"Ġrock":1551,"Ġcross":1552,"Ġlittle":1553,"Ġnever":1554,"ention":1555,"Ġplayer":1556,"Ġmoved":1557,"Ġcoun":1558,"Ġplan":1559,"Ġwithout":1560,"Ġfri":1561,"ott":1562,"Ġcareer":1563,"Ġwom":1564,"Ġiss":1565,"Ġheld":1566,"Ġexper":1567,"Ġhalf":1568,"aff":1569,"Ġpark":1570,"side":1571,"Ġtre":1572,"ross":1573,"Ġ2009":1574,"iation":1575,"uss":1576,"ery":1577,"uted":1578,"gy":1579,"Ġeffect":1580,"ission":1581,"Ġdefe":1582,"Ġpolit":1583,"ior":1584,"Ġpri":1585,"Ġdeb":1586,"Ġbill":1587,"Ġfre":1588,"Ġorder":1589,"Ġcover":1590,"Ġsongs":1591,"Ġcaus":1592,"elt":1593,"Ġresult":1594,"Ġhurric":1595,"aster":1596,"Ġimport":1597,"Ġoften":1598,"yal":1599,"read":1600,"Ġbeh":1601,"app":1602,"Ġassoc":1603,"ival":1604,"Ġstrong":1605,"Ġaward":1606,"Ġnight":1607,"Ġconsidered":1608,"Ġinfl":1609,"iment":1610,"Ġbrig":1611,"Ġtrad":1612,"Ġmatch":1613,"Ġpit":1614,"Ġproduction":1615,"Ġdays":1616,"Ġcontr":1617,"Ġcounty":1618,"Ġmembers":1619,"Ġcast":1620,"Ġtake":1621,"Ġmount":1622,"Ġclaim":1623,"Ġproject":1624,"ung":1625,"eng":1626,"Ġless":1627,"Ġpress":1628,"Ġdesp":1629,"Ġcat":1630,"Ġdet":1631,"Ġpoint":1632,"Ġchampions":1633,"Ġ21":1634,"Ġlevel":1635,"ob":1636,"yle":1637,"Ġprof":1638,"Ġrepres":1639,"Ġhighway":1640,"Ġ2007":1641,"Ġsuggest":1642,"Ġprop":1643,"Ġrelease":1644,"br":1645,"ister":1646,"Ġobs":1647,"Ġfeder":1648,"Ġrefer":1649,"Ġ23":1650,"Ġcomb":1651,"ches":1652,"Ġwat":1653,"ret":1654,"Ġhaving":1655,"Ġrich":1656,"Ġ24":1657,"Ġchang":1658,"me":1659,"ots":1660,"enc":1661,"Ġgood":1662,"Ġfind":1663,"Ġrecorded":1664,"ying":1665,"Ġlost":1666,"Ġfort":1667,"ories":1668,"Ġstat":1669,"Ġinternational":1670,"Ġdifferent":1671,"par":1672,"Ġscient":1673,"bru":1674,"Ġfle":1675,"Ġwritten":1676,"Ġbattalion":1677,"Ġhurricane":1678,"Ġsal":1679,"estern":1680,"Ġchart":1681,"nt":1682,"Ġ2011":1683,"Ġtotal":1684,"inc":1685,"Ġlove":1686,"Ġpa":1687,"Ġbur":1688,"Ġlook":1689,"gram":1690,"Ġord":1691,"ves":1692,"Ġinde":1693,"augh":1694,"Ġ22":1695,"ensive":1696,"Ġsum":1697,"ones":1698,"ico":1699,"Ġhy":1700,"Ġinvol":1701,"Ġfriend":1702,"ize":1703,"ried":1704,"Ġenglish":1705,"Ġdespite":1706,"Ġfebru":1707,"Ġauthor":1708,"Ġfebruary":1709,"Ġdevelopment":1710,"Ġsound":1711,"iter":1712,"Ġ2012":1713,"Ġpublished":1714,"Ġships":1715,"Ġaustralian":1716,"sh":1717,"Ġpal":1718,"Ġ2006":1719,"vision":1720,"Ġdon":1721,"Ġdecl":1722,"Ġcontrol":1723,"Ġ26":1724,"Ġcompet":1725,"ression":1726,"Ġthroughout":1727,"ering":1728,"Ġjack":1729,"ices":1730,"raw":1731,"Ġmanag":1732,"Ġphil":1733,"Ġnorther":1734,"Ġcentral":1735,"itar":1736,"Ġprot":1737,"Ġgold":1738,"Ġcountry":1739,"ring":1740,"Ġpur":1741,"Ġparticular":1742,"Ġeight":1743,"Ġfree":1744,"Ġonce":1745,"Ġsouther":1746,"Ġec":1747,"Ġearl":1748,"Ġservice":1749,"Ġnorthern":1750,"Ġten":1751,"rodu":1752,"ney":1753,"Ġcourt":1754,"Ġwant":1755,"vers":1756,"Ġmodern":1757,"Ġtitle":1758,"Ġtur":1759,"Ġvi":1760,"Ġsouthern":1761,"Ġequ":1762,"Ġaustralia":1763,"Ġrepresent":1764,"Ġgave":1765,"Ġbecome":1766,"line":1767,"Ġground":1768,"Ġsit":1769,"Ġcult":1770,"Ġaff":1771,"Ġreported":1772,"Ġdestro":1773,"Ġsite":1774,"ising":1775,"Ġham":1776,"Ġlim":1777,"Ġft":1778,"Ġha":1779,"aces":1780,"Ġpopular":1781,"Ġwent":1782,"ax":1783,"Ġmich":1784,"Ġroyal":1785,"Ġcanad":1786,"Ġproduced":1787,"Ġprogram":1788,"Ġho":1789,"Ġtoo":1790,"Ġlive":1791,"Ġgiven":1792,"Ġthought":1793,"Ġball":1794,"Ġhor":1795,"sequ":1796,"Ġsignific":1797,"Ġinflu":1798,"co":1799,"Ġversion":1800,"atic":1801,"Ġlab":1802,"ploy":1803,"Ġson":1804,"Ġwood":1805,"Ġchildren":1806,"Ġles":1807,"Ġread":1808,"Ġalice":1809,"itions":1810,"Ġshould":1811,"day":1812,"ument":1813,"ably":1814,"Ġchampionship":1815,"Ġwestern":1816,"Ġhour":1817,"Ġcoast":1818,"Ġstruct":1819,"craft":1820,"Ġacross":1821,"Ġactiv":1822,"Ġ!":1823,"Ġcas":1824,"Ġmaking":1825,"Ġfront":1826,"Ġyoung":1827,"Ġciv":1828,"Ġ28":1829,"rent":1830,"Ġcritic":1831,"iety":1832,"Ġaway":1833,"xim":1834,"Ġage":1835,"Ġwriting":1836,"Ġill":1837,"Ġgeor":1838,"Ġve":1839,"ara":1840,"arn":1841,"Ġheavy":1842,"Ġgrand":1843,"Ġce":1844,"Ġtelevision":1845,"Ġmass":1846,"Ġhuman":1847,"che":1848,"Ġnet":1849,"Ġafric":1850,"Ġget":1851,"ither":1852,"Ġroman":1853,"Ġdou":1854,"Ġsquad":1855,"ead":1856,"used":1857,"ertain":1858,"Ġreturned":1859,"ille":1860,"Ġinclude":1861,"Ġeastern":1862,"Ġtor":1863,"Ġ27":1864,"Ġseen":1865,"Ġmiles":1866,"Ġ50":1867,"Ġknow":1868,"Ġconv":1869,"Ġprim":1870,"Ġpresident":1871,"Ġseven":1872,"Ġusing":1873,"Ġperformance":1874,"Ġfail":1875,"Ġwilliam":1876,"Ġcivil":1877,"Ġ2013":1878,"Ġconstruction":1879,"ape":1880,"Ġhill":1881,"antry":1882,"ator":1883,"ama":1884,"ades":1885,"Ġstated":1886,"ization":1887,"Ġdeveloped":1888,"Ġbuilding":1889,"Ġput":1890,"Ġarg":1891,"Ġbroad":1892,"Ġpopulation":1893,"ship":1894,"Ġfight":1895,"Ġreached":1896,"Ġsuff":1897,"Ġtechn":1898,"fic":1899,"Ġvo":1900,"Ġdestroy":1901,"Ġsignificant":1902,"Ġpra":1903,"amb":1904,"Ġmean":1905,"Ġburn":1906,"Ġamerica":1907,"Ġjapanese":1908,"ford":1909,"rew":1910,"Ġbase":1911,"Ġsun":1912,"Ġpain":1913,"Ġmm":1914,"Ġnews":1915,"Ġcenter":1916,"ended":1917,"Ġspecial":1918,"Ġestabl":1919,"ius":1920,"Ġfull":1921,"Ġinstead":1922,"Ġannoun":1923,"Ġoccur":1924,"Ġfem":1925,"Ġbody":1926,"Ġhig":1927,"play":1928,"Ġfact":1929,"Ġsurv":1930,"iness":1931,"Ġofficial":1932,"Ġ29":1933,"Ġfelt":1934,"Ġdev":1935,"Ġinfantry":1936,"yn":1937,"inted":1938,"Ġworks":1939,"Ġbegin":1940,"Ġfall":1941,"Ġ190":1942,"Ġguns":1943,"ground":1944,"Ġfif":1945,"Ġfather":1946,"Ġmal":1947,"com":1948,"Ġcou":1949,"Ġhom":1950,"aves":1951,"Ġhimself":1952,"Ġsan":1953,"Ġlond":1954,"utes":1955,"Ġestablished":1956,"iers":1957,"Ġdiscover":1958,"most":1959,"Ġcir":1960,"aign":1961,"Ġrange":1962,"Ġtrav":1963,"Ġfeet":1964,"ological":1965,"Ġcampaign":1966,"Ġtal":1967,"reek":1968,"Ġformed":1969,"Ġlocated":1970,"Ġstreet":1971,"Ġlondon":1972,"af":1973,"Ġdav":1974,"Ġareas":1975,"Ġneed":1976,"Ġintrodu":1977,"Ġvarious":1978,"ges":1979,"Ġvol":1980,"Ġimportant":1981,"Ġol":1982,"Ġfun":1983,"Ġplayers":1984,"Ġupon":1985,"Ġide":1986,"Ġdu":1987,"Ġindust":1988,"Ġguitar":1989,"Ġiron":1990,"rest":1991,"Ġbrigade":1992,"Ġmix":1993,"Ġhero":1994,"Ġfac":1995,"isted":1996,"Ġfootball":1997,"Ġfig":1998,"Ġengine":1999,"Ġoriginally":2000,"work":2001,"Ġstri":2002,"Ġround":2003,"Ġkilled":2004,"ination":2005,"ened":2006,"Ġlet":2007,"Ġsuccessful":2008,"alth":2009,"Ġdied":2010,"Ġnoted":2011,"Ġpoem":2012,"Ġmi":2013,"ox":2014,"oon":2015,"Ġwall":2016,"Ġstyle":2017,"Ġtest":2018,"erc":2019,"Ġdoes":2020,"ylan":2021,"Ġmot":2022,"ush":2023,"Ġdylan":2024,"Ġcolon":2025,"acy":2026,"Ġsett":2027,"Ġword":2028,"Ġrelig":2029,"ald":2030,"Ġsn":2031,"itive":2032,"ript":2033,"Ġstarted":2034,"lo":2035,"Ġpen":2036,"Ġkingdom":2037,"ration":2038,"ief":2039,"Ġdepart":2040,"Ġtyp":2041,"omb":2042,"field":2043,"gress":2044,"ids":2045,"Ġperformed":2046,"Ġtroops":2047,"Ġmem":2048,"Ġnat":2049,"Ġinterest":2050,"rie":2051,"Ġothers":2052,"rick":2053,"Ġremained":2054,"iting":2055,"ipp":2056,"Ġ31":2057,"Ġire":2058,"Ġelect":2059,"osaur":2060,"ma":2061,"Ġhold":2062,"fall":2063,"itted":2064,"idence":2065,"Ġcaused":2066,"mp":2067,"Ġpolitical":2068,"Ġvir":2069,"Ġpromot":2070,"ogn":2071,"Ġireland":2072,"orts":2073,"Ġregion":2074,"cher":2075,"Ġlang":2076,"Ġjames":2077,"Ġevents":2078,"Ġfav":2079,"onom":2080,"Ġhol":2081,"Ġpeak":2082,"Ġque":2083,"Ġnon":2084,"Ġentire":2085,"ino":2086,"Ġindepend":2087,"ec":2088,"Ġly":2089,"Ġ2005":2090,"ream":2091,"Ġhon":2092,"Ġagre":2093,"Ġcritics":2094,"cil":2095,"Ġsea":2096,"Ġcirc":2097,"Ġbi":2098,"Ġhot":2099,"Ġable":2100,"Ġprofess":2101,"Ġcommission":2102,"iated":2103,"Ġaud":2104,"Ġmad":2105,"Ġey":2106,"Ġbehind":2107,"ints":2108,"Ġdirector":2109,"Ġadded":2110,"ero":2111,"Ġmother":2112,"Ġtom":2113,"Ġcond":2114,"ries":2115,"Ġgrow":2116,"Ġearth":2117,"Ġaircraft":2118,"ask":2119,"ament":2120,"Ġserved":2121,"Ġfollowed":2122,"Ġeventually":2123,"Ġborn":2124,"Ġdamage":2125,"Ġrelations":2126,"Ġreb":2127,"Ġoperations":2128,"Ġcreated":2129,"Ġestim":2130,"Ġbow":2131,"enced":2132,"ctor":2133,"Ġleast":2134,"Ġcharacters":2135,"bor":2136,"asing":2137,"Ġ40":2138,"Ġmeet":2139,"Ġbrown":2140,"Ġtradition":2141,"Ġrul":2142,"Ġatl":2143,"Ġbird":2144,"Ġden":2145,"Ġhit":2146,"Ġhen":2147,"Ġanim":2148,"Ġdiffic":2149,"Ġmagaz":2150,"Ġdifficult":2151,"Ġsil":2152,"mar":2153,"Ġpred":2154,"Ġsele":2155,"antic":2156,"Ġenc":2157,"Ġbecom":2158,"Ġ189":2159,"Ġsaw":2160,"Ġsat":2161,"ana":2162,"enth":2163,"Ġcompleted":2164,"Ġder":2165,"Ġloss":2166,"Ġalmost":2167,"Ġaction":2168,"Ġcup":2169,"Ġwomen":2170,"less":2171,"Ġinn":2172,"Ġcomment":2173,"Ġsubsequ":2174,"Ġhelp":2175,"ways":2176,"ael":2177,"Ġcer":2178,"Ġnar":2179,"Ġrail":2180,"Ġappeared":2181,"Ġcycl":2182,"Ġannounced":2183,"Ġtoget":2184,"Ġli":2185,"Ġ2004":2186,"Ġproduc":2187,"Ġtogether":2188,"Ġfourth":2189,"ze":2190,"Ġident":2191,"Ġod":2192,"Ġhard":2193,"Ġparty":2194,"Ġcoll":2195,"rought":2196,"Ġcop":2197,"Ġprocess":2198,"Ġtransport":2199,"go":2200,"Ġdi":2201,"ample":2202,"Ġmonths":2203,"Ġcase":2204,"Ġhall":2205,"Ġnav":2206,"Ġul":2207,"ivid":2208,"Ġchap":2209,"rict":2210,"Ġfleet":2211,"aly":2212,"Ġlos":2213,"Ġredu":2214,"Ġgal":2215,"dle":2216,"Ġlik":2217,"Ġoperation":2218,"Ġstars":2219,"ique":2220,"Ġtowards":2221,"iff":2222,"ought":2223,"ucle":2224,"Ġru":2225,"Ġrac":2226,"Ġclose":2227,"ected":2228,"Ġnovel":2229,"Ġaver":2230,"Ġsour":2231,"Ġfa":2232,"Ġvoc":2233,"Ġbay":2234,"Ġlack":2235,"odes":2236,"Ġfeatures":2237,"den":2238,"ming":2239,"ston":2240,"Ġdecided":2241,"Ġber":2242,"Ġmcc":2243,"ality":2244,"ressed":2245,"Ġbig":2246,"Ġcome":2247,"emy":2248,"Ġ2015":2249,"cent":2250,"Ġmur":2251,"ray":2252,"Ġrese":2253,"Ġstation":2254,"Ġrain":2255,"Ġindivid":2256,"Ġstage":2257,"Ġ2003":2258,"Ġaccom":2259,"Ġsex":2260,"Ġsoon":2261,"Ġjew":2262,"Ġtaken":2263,"Ġbir":2264,"Ġeither":2265,"Ġrather":2266,"Ġinvest":2267,"aph":2268,"ency":2269,"Ġny":2270,"ements":2271,"Ġrecogn":2272,"Ġwinds":2273,"tim":2274,"Ġcut":2275,"Ġrank":2276,"Ġplaying":2277,"su":2278,"Ġtrib":2279,"Ġnavy":2280,"Ġflight":2281,"Ġbusiness":2282,"Ġ188":2283,"Ġoffice":2284,"wh":2285,"Ġinform":2286,"ned":2287,"uck":2288,"heast":2289,"Ġwife":2290,"Ġregiment":2291,"Ġscientology":2292,"Ġexc":2293,"Ġmex":2294,"Ġmc":2295,"Ġjour":2296,"Ġforest":2297,"Ġmach":2298,"Ġclos":2299,"Ġappo":2300,"Ġrace":2301,"Ġze":2302,"Ġimpro":2303,"igned":2304,"action":2305,"Ġmuse":2306,"Ġawards":2307,"Ġsepar":2308,"Ġquar":2309,"Ġcurrent":2310,"cast":2311,"Ġhost":2312,"Ġproble":2313,"Ġgoal":2314,"to":2315,"aching":2316,"Ġdepression":2317,"Ġesc":2318,"Ġleading":2319,"ators":2320,"istic":2321,"Ġterrit":2322,"Ġlaun":2323,"Ġdavid":2324,"aut":2325,"Ġcreat":2326,"Ġstop":2327,"aps":2328,"Ġfrance":2329,"Ġcrew":2330,"Ġtreat":2331,"Ġmac":2332,"aper":2333,"Ġtype":2334,"ica":2335,"elling":2336,"Ġscored":2337,"olution":2338,"Ġflood":2339,"Ġoutside":2340,"Ġinterv":2341,"Ġunits":2342,"Ġadm":2343,"Ġwales":2344,"Ġlangu":2345,"Ġcru":2346,"Ġmember":2347,"Ġnucle":2348,"Ġ185":2349,"ata":2350,"Ġanc":2351,"king":2352,"Ġwid":2353,"Ġcost":2354,"Ġmater":2355,"ceed":2356,"Ġshot":2357,"Ġemb":2358,"Ġmove":2359,"Ġach":2360,"Ġface":2361,"Ġpast":2362,"Ġ35":2363,"Ġaccept":2364,"medi":2365,"ota":2366,"pec":2367,"Ġindian":2368,"Ġfeatured":2369,"ography":2370,"Ġmagazine":2371,"Ġsen":2372,"Ġcreek":2373,"Ġdomin":2374,"Ġfinished":2375,"gin":2376,"west":2377,"Ġseem":2378,"Ġdirected":2379,"anch":2380,"Ġexample":2381,"Ġrecords":2382,"ole":2383,"Ġfund":2384,"Ġconn":2385,"Ġpoet":2386,"Ġrespons":2387,"Ġclear":2388,"Ġbrought":2389,"Ġstone":2390,"ully":2391,"Ġrespect":2392,"Ġmeas":2393,"Ġcouncil":2394,"Ġrelationship":2395,"urb":2396,"Ġkil":2397,"ude":2398,"Ġbelieved":2399,"Ġfoc":2400,"Ġunion":2401,"Ġtow":2402,"Ġintens":2403,"Ġcommerc":2404,"wood":2405,"Ġpot":2406,"Ġ500":2407,"Ġopening":2408,"Ġweeks":2409,"Ġsquadron":2410,"Ġpac":2411,"Ġrap":2412,"Ġrobert":2413,"Ġprem":2414,"Ġelements":2415,"Ġgenerally":2416,"Ġcarey":2417,"Ġopened":2418,"head":2419,"Ġcard":2420,"ington":2421,"Ġregular":2422,"ked":2423,"uation":2424,"Ġcell":2425,"Ġcondu":2426,"Ġplaced":2427,"Ġabove":2428,"Ġrecording":2429,"Ġkey":2430,"tended":2431,"ugh":2432,"Ġbra":2433,"Ġfell":2434,"Ġstren":2435,"Ġsequ":2436,"Ġprob":2437,"Ġlargest":2438,"Ġmiddle":2439,"reg":2440,"Ġcam":2441,"Ġox":2442,"Ġpoints":2443,"Ġinitially":2444,"Ġearlier":2445,"men":2446,"Ġmph":2447,"Ġexec":2448,"Ġregard":2449,"Ġworking":2450,"imes":2451,"Ġ186":2452,"Ġsaying":2453,"ville":2454,"Ġprovided":2455,"Ġvictory":2456,"board":2457,"lic":2458,"here":2459,"Ġmust":2460,"Ġdraw":2461,"ential":2462,"thod":2463,"Ġindic":2464,"Ġpaul":2465,"aland":2466,"ida":2467,"Ġpolice":2468,"nes":2469,"Ġmult":2470,"Ġarchae":2471,"Ġappearance":2472,"Ġera":2473,"Ġhours":2474,"Ġbal":2475,"Ġfly":2476,"Ġheav":2477,"Ġcho":2478,"ishing":2479,"Ġflor":2480,"Ġsecret":2481,"Ġstreng":2482,"hest":2483,"Ġthom":2484,"Ġthink":2485,"Ġplat":2486,"Ġpriv":2487,"Ġstudio":2488,"Ġdesigned":2489,"Ġradio":2490,"Ġwanted":2491,"Ġsus":2492,"umb":2493,"Ġquick":2494,"Ġrepubl":2495,"Ġnine":2496,"Ġrose":2497,"Ġcompos":2498,"Ġpossible":2499,"Ġprior":2500,"Ġmuseum":2501,"uk":2502,"Ġq":2503,"Ġpreviously":2504,"Ġpet":2505,"Ġlower":2506,"Ġjud":2507,"Ġspan":2508,"Ġacad":2509,"Ġanti":2510,"Ġinvolved":2511,"for":2512,"pan":2513,"anks":2514,"asion":2515,"ros":2516,"Ġcondom":2517,"Ġdeter":2518,"Ġallowed":2519,"Ġvillage":2520,"my":2521,"iding":2522,"Ġyards":2523,"Ġneg":2524,"Ġeduc":2525,"Ġassociation":2526,"Ġreve":2527,"Ġspace":2528,"Ġparl":2529,"gg":2530,"Ġroom":2531,"Ġemploy":2532,"iction":2533,"Ġcommunity":2534,"Ġgeorge":2535,"oo":2536,"Ġlat":2537,"Ġreason":2538,"Ġdeal":2539,"Ġpract":2540,"Ġeuropean":2541,"Ġachie":2542,"ores":2543,"erous":2544,"Ġleng":2545,"Ġgir":2546,"Ġsection":2547,"Ġviet":2548,"Ġresul":2549,"Ġbreak":2550,"ls":2551,"Ġexist":2552,"ey":2553,"onst":2554,"Ġpoor":2555,"Ġreplaced":2556,"uel":2557,"Ġpie":2558,"Ġangel":2559,"Ġmanager":2560,"Ġparticularly":2561,"Ġath":2562,"Ġblue":2563,"Ġsym":2564,"Ġbrother":2565,"Ġeconom":2566,"rated":2567,"Ġscre":2568,"Ġsaf":2569,"Ġminor":2570,"Ġsummer":2571,"Ġtheat":2572,"Ġrh":2573,"Ġtraining":2574,"Ġjoined":2575,"Ġwil":2576,"Ġhous":2577,"Ġdiss":2578,"Ġviol":2579,"ties":2580,"urg":2581,"Ġkore":2582,"ounted":2583,"Ġfeel":2584,"Ġremov":2585,"Ġinsp":2586,"Ġestimated":2587,"nar":2588,"Ġnomin":2589,"Ġstay":2590,"Ġamb":2591,"Ġcollege":2592,"Ġbeginning":2593,"Ġparliam":2594,"Ġmart":2595,"Ġthreat":2596,"Ġcommit":2597,"Ġ187":2598,"Ġ2014":2599,"Ġstudy":2600,"Ġcommander":2601,"ving":2602,"Ġinj":2603,"Ġmetres":2604,"Ġchristian":2605,"Ġrepublic":2606,"oring":2607,"Ġdom":2608,"Ġhosp":2609,"Ġgar":2610,"Ġforced":2611,"Ġdead":2612,"Ġfemale":2613,"ram":2614,"Ġnorm":2615,"ula":2616,"Ġ2001":2617,"inese":2618,"sel":2619,"Ġ2000":2620,"Ġevidence":2621,"Ġtransfer":2622,"anned":2623,"Ġcommercial":2624,"ih":2625,"Ġmr":2626,"Ġchinese":2627,"Ġ1970":2628,"Ġaut":2629,"quar":2630,"Ġscene":2631,"Ġpraised":2632,"Ġlength":2633,"Ġlines":2634,"aint":2635,"ago":2636,"Ġbridge":2637,"Ġincreased":2638,"Ġavail":2639,"Ġmaterial":2640,"Ġparliament":2641,"uter":2642,"Ġliter":2643,"Ġwithd":2644,"Ġven":2645,"Ġworked":2646,"Ġsomet":2647,"down":2648,"ita":2649,"Ġbey":2650,"Ġcritical":2651,"Ġordered":2652,"Ġtaking":2653,"ste":2654,"aded":2655,"Ġstaff":2656,"Ġchange":2657,"oke":2658,"Ġgoing":2659,"Ġmaint":2660,"itz":2661,"Ġhapp":2662,"elled":2663,"Ġzealand":2664,"nel":2665,"Ġmel":2666,"Ġscen":2667,"Ġimmedi":2668,"Ġcapital":2669,"Ġbackground":2670,"Ġinstit":2671,"Ġturned":2672,"Ġsocial":2673,"Ġbritain":2674,"Ġfut":2675,"Ġmos":2676,"Ġstructure":2677,"Ġsam":2678,"ania":2679,"lement":2680,"imin":2681,"Ġyour":2682,"Ġwheel":2683,"Ġsociety":2684,"Ġmichael":2685,"Ġquarter":2686,"pr":2687,"uz":2688,"Ġruss":2689,"Ġitself":2690,"Ġremains":2691,"Ġsurf":2692,"Ġoccup":2693,"val":2694,"Ġmary":2695,"Ġlad":2696,"Ġren":2697,"Ġassist":2698,"Ġemp":2699,"Ġ1990":2700,"Ġsubst":2701,"Ġlesnar":2702,"Ġatlantic":2703,"Ġmexico":2704,"Ġyard":2705,"kn":2706,"ky":2707,"Ġos":2708,"orial":2709,"Ġdoc":2710,"Ġ45":2711,"ibility":2712,"oney":2713,"Ġbetter":2714,"Ġapproxim":2715,"Ġhighest":2716,"Ġpacific":2717,"Ġwhom":2718,"Ġmountain":2719,"off":2720,"Ġheart":2721,"Ġparticip":2722,"Ġinterview":2723,"Ġfood":2724,"aring":2725,"ready":2726,"hic":2727,"hib":2728,"Ġgot":2729,"clus":2730,"pper":2731,"Ġ60":2732,"Ġaverage":2733,"ca":2734,"Ġdeep":2735,"aker":2736,"Ġcontrib":2737,"Ġreception":2738,"Ġslow":2739,"Ġmedia":2740,"Ġpay":2741,"Ġdro":2742,"Ġplot":2743,"ification":2744,"Ġfederer":2745,"Ġhorse":2746,"Ġmight":2747,"arily":2748,"Ġnative":2749,"Ġassemb":2750,"Ġsubject":2751,"Ġtemple":2752,"Ġflorida":2753,"Ġdark":2754,"ulf":2755,"oph":2756,"Ġexcept":2757,"Ġenough":2758,"Ġsurround":2759,"Ġincreasing":2760,"Ġpun":2761,"Ġnames":2762,"Ġ2002":2763,"Ġsigned":2764,"Ġsoldiers":2765,"rd":2766,"utive":2767,"ession":2768,"Ġdisp":2769,"Ġphys":2770,"Ġarrived":2771,"Ġclaimed":2772,"Ġrichard":2773,"Ġtravel":2774,"Ġreligious":2775,"Ġresearch":2776,"rison":2777,"Ġproper":2778,"pected":2779,"Ġunc":2780,"ordan":2781,"Ġadmin":2782,"Ġobject":2783,"porary":2784,"Ġvoice":2785,"Ġwild":2786,"Ġcertain":2787,"Ġlou":2788,"Ġparts":2789,"Ġcomplete":2790,"Ġreviews":2791,"Ġgive":2792,"stand":2793,"Ġalready":2794,"Ġoverall":2795,"Ġdamaged":2796,"band":2797,"tar":2798,"erved":2799,"Ġbad":2800,"Ġhun":2801,"Ġtold":2802,"Ġdepartment":2803,"Ġavailable":2804,"ha":2805,"Ġnearly":2806,"Ġpassed":2807,"Ġindustry":2808,"Ġthomas":2809,"Ġsize":2810,"Ġtoday":2811,"Ġjordan":2812,"rian":2813,"Ġimm":2814,"Ġgreen":2815,"Ġdefeated":2816,"oid":2817,"Ġwide":2818,"Ġour":2819,"Ġdig":2820,"Ġrob":2821,"abit":2822,"Ġprobably":2823,"ites":2824,"Ġimag":2825,"Ġterm":2826,"Ġdetail":2827,"Ġsometimes":2828,"ga":2829,"Ġot":2830,"Ġdate":2831,"Ġrunning":2832,"Ġadditional":2833,"Ġestablish":2834,"Ġoliv":2835,"ping":2836,"xas":2837,"Ġuk":2838,"Ġrang":2839,"Ġdeg":2840,"ulated":2841,"gypt":2842,"nal":2843,"of":2844,"vert":2845,"Ġwhose":2846,"Ġ36":2847,"Ġcontem":2848,"Ġqueen":2849,"Ġapproximately":2850,"ii":2851,"Ġtar":2852,"aries":2853,"Ġdut":2854,"Ġegypt":2855,"Ġforward":2856,"Ġabs":2857,"Ġcarol":2858,"Ġcanada":2859,"Ġappointed":2860,"ket":2861,"Ġple":2862,"aled":2863,"Ġlatter":2864,"Ġboard":2865,"Ġgrad":2866,"Ġcontract":2867,"Ġlanguage":2868,"Ġdan":2869,"ateg":2870,"Ġboy":2871,"Ġ75":2872,"Ġquest":2873,"wor":2874,"erson":2875,"Ġexam":2876,"Ġ1960":2877,"Ġrequired":2878,"Ġdebut":2879,"Ġbod":2880,"isc":2881,"ila":2882,"Ġupper":2883,"une":2884,"Ġfighting":2885,"Ġvietn":2886,"ining":2887,"Ġmom":2888,"Ġmort":2889,"ouri":2890,"Ġnin":2891,"ription":2892,"Ġ38":2893,"Ġ183":2894,"Ġheadquar":2895,"Ġcomplet":2896,"stein":2897,"Ġben":2898,"Ġlay":2899,"Ġscott":2900,"Ġwinning":2901,"Ġprevent":2902,"Ġhenry":2903,"Ġtell":2904,"Ġtouch":2905,"Ġhere":2906,"Ġsem":2907,"Ġairport":2908,"Ġgroups":2909,"Ġsubsequently":2910,"ases":2911,"Ġunit":2912,"ference":2913,"Ġwriter":2914,"Ġmissouri":2915,"Ġprotest":2916,"back":2917,"Ġlake":2918,"urity":2919,"Ġremaining":2920,"Ġmont":2921,"Ġathlet":2922,"Ġcred":2923,"ability":2924,"Ġunl":2925,"Ġdecision":2926,"Ġsuggested":2927,"Ġlimited":2928,"Ġbab":2929,"Ġfer":2930,"Ġthus":2931,"sec":2932,"Ġvictor":2933,"Ġintroduced":2934,"atory":2935,"Ġmale":2936,"Ġgoals":2937,"Ġlarger":2938,"Ġmoving":2939,"Ġcomplex":2940,"Ġobserv":2941,"ki":2942,"Ġbord":2943,"oration":2944,"Ġscore":2945,"Ġdisplay":2946,"Ġended":2947,"Ġshows":2948,"Ġwoman":2949,"Ġbul":2950,"Ġran":2951,"ching":2952,"Ġdistrict":2953,"Ġespec":2954,"hens":2955,"Ġissue":2956,"Ġfailed":2957,"Ġfifth":2958,"oor":2959,"Ġdaugh":2960,"ilities":2961,"ett":2962,"Ġroll":2963,"Ġcaptain":2964,"Ġnero":2965,"ume":2966,"Ġyet":2967,"Ġafrica":2968,"olic":2969,"cts":2970,"Ġcentre":2971,"Ġvisit":2972,"Ġfriends":2973,"Ġnatural":2974,"Ġespecially":2975,"gl":2976,"je":2977,"onse":2978,"Ġbomb":2979,"uments":2980,"Ġtwent":2981,"Ġcharles":2982,"Ġremain":2983,"Ġsupported":2984,"Ġcaptured":2985,"Ġnaval":2986,"ires":2987,"Ġdyn":2988,"Ġemper":2989,"Ġminutes":2990,"Ġchanges":2991,"Ġinvestig":2992,"iest":2993,"Ġcorn":2994,"Ġpan":2995,"illery":2996,"Ġindia":2997,"Ġmixed":2998,"Ġ?":2999,"Ġast":3000,"ari":3001,"Ġalways":3002,"Ġspent":3003,"Ġpeter":3004,"Ġ80":3005,"Ġartillery":3006,"Ġgermany":3007,"Ġdiscovered":3008,"Ġspanish":3009,"bers":3010,"fect":3011,"onic":3012,"Ġhop":3013,"idents":3014,"apt":3015,"abb":3016,"Ġintended":3017,"Ġirish":3018,"Ġconcert":3019,"Ġresponse":3020,"Ġdestroyed":3021,"Ġfuture":3022,"bc":3023,"lor":3024,"Ġself":3025,"Ġblood":3026,"Ġnetwork":3027,"Ġca":3028,"ises":3029,"Ġbeat":3030,"Ġ1980":3031,"Ġruns":3032,"Ġcounter":3033,"Ġlyric":3034,"ker":3035,"ads":3036,"Ġtraff":3037,"Ġscript":3038,"Ġfinally":3039,"Ġsquare":3040,"Ġfederal":3041,"Ġoce":3042,"Ġhealth":3043,"ows":3044,"Ġchic":3045,"Ġusually":3046,"Ġgrant":3047,"Ġguard":3048,"Ġmorning":3049,"Ġund":3050,"ays":3051,"Ġnotes":3052,"Ġincludes":3053,"Ġsail":3054,"Ġteams":3055,"Ġfeature":3056,"Ġfrequ":3057,"Ġprofessional":3058,"yer":3059,"Ġfox":3060,"outh":3061,"Ġstories":3062,"rief":3063,"Ġmention":3064,"Ġ184":3065,"Ġmostly":3066,"Ġemer":3067,"Ġpositive":3068,"Ġprovide":3069,"Ġsmaller":3070,"Ġshortly":3071,"Ġcanadian":3072,"Ġbroadcast":3073,"Ġpare":3074,"Ġlink":3075,"Ġarab":3076,"ishop":3077,"ples":3078,"Ġfrank":3079,"Ġfilms":3080,"Ġkeep":3081,"Ġpersonal":3082,"Ġfavor":3083,"Ġagreed":3084,"Ġultim":3085,"Ġwit":3086,"Ġpair":3087,"pped":3088,"Ġpenn":3089,"Ġmounted":3090,"Ġminute":3091,"Ġoldham":3092,"Ġbecoming":3093,"Ġscreen":3094,"ken":3095,"Ġtax":3096,"itect":3097,"Ġliving":3098,"Ġcomed":3099,"Ġrow":3100,"Ġmusical":3101,"Ġpressure":3102,"gar":3103,"mond":3104,"Ġschol":3105,"Ġstudents":3106,"Ġcorps":3107,"Ġarchitect":3108,"Ġeducation":3109,"Ġoly":3110,"Ġlord":3111,"Ġlog":3112,"Ġjin":3113,"Ġlocation":3114,"Ġpositions":3115,"Ġrequest":3116,"Ġheadquarters":3117,"Ġolymp":3118,"gen":3119,"Ġbatter":3120,"Ġinh":3121,"Ġadop":3122,"hedral":3123,"Ġshell":3124,"Ġspeed":3125,"Ġcarried":3126,"Ġmovement":3127,"anna":3128,"Ġtemper":3129,"Ġiii":3130,"Ġbirth":3131,"Ġmakes":3132,"Ġmoney":3133,"iser":3134,"acted":3135,"Ġshown":3136,"Ġoppos":3137,"Ġidea":3138,"Ġlikely":3139,"Ġprivate":3140,"rack":3141,"uan":3142,"change":3143,"andon":3144,"teen":3145,"Ġcann":3146,"Ġvers":3147,"Ġequip":3148,"Ġculture":3149,"Ġprimary":3150,"Ġcm":3151,"Ġthings":3152,"Ġasked":3153,"igan":3154,"Ġrapid":3155,"Ġtv":3156,"Ġsout":3157,"Ġcath":3158,"Ġdoll":3159,"Ġconclud":3160,"umn":3161,"Ġbox":3162,"Ġ1999":3163,"Ġlarg":3164,"osaurus":3165,"atively":3166,"Ġram":3167,"Ġvot":3168,"Ġchina":3169,"Ġ70":3170,"Ġcompanies":3171,"Ġeffects":3172,"Ġdefeat":3173,"Ġproblems":3174,"selves":3175,"Ġadminist":3176,"Ġwound":3177,"Ġconcept":3178,"Ġchief":3179,"Ġtrade":3180,"Ġrelated":3181,"Ġbelow":3182,"Ġofficers":3183,"Ġconcern":3184,"Ġsurface":3185,"Ġolivier":3186,"light":3187,"Ġgall":3188,"Ġjer":3189,"agon":3190,"Ġshoot":3191,"Ġpercent":3192,"Ġcolor":3193,"Ġbooks":3194,"Ġcasual":3195,"Ġcele":3196,"Ġquickly":3197,"Ġempire":3198,"cing":3199,"ios":3200,"Ġnations":3201,"Ġnature":3202,"Ġimage":3203,"Ġconsist":3204,"Ġ1995":3205,"Ġbillboard":3206,"Ġcathedral":3207,"Ġreferred":3208,"Ġranked":3209,"Ġrif":3210,"Ġridge":3211,"Ġleaving":3212,"Ġprinc":3213,"Ġjewish":3214,"Ġhospital":3215,"ror":3216,"under":3217,"uals":3218,"well":3219,"Ġtons":3220,"inct":3221,"Ġsand":3222,"Ġcad":3223,"Ġbrief":3224,"Ġpil":3225,"Ġrein":3226,"Ġbeaut":3227,"Ġsev":3228,"Ġ32":3229,"Ġwhole":3230,"Ġentered":3231,"Ġvirgin":3232,"Ġtraffic":3233,"ners":3234,"Ġale":3235,"Ġmethod":3236,"Ġbring":3237,"Ġeye":3238,"Ġmachine":3239,"Ġterritory":3240,"Ġemperor":3241,"mas":3242,"icted":3243,"ria":3244,"Ġnumbers":3245,"Ġelection":3246,"Ġarrang":3247,"Ġcalif":3248,"Ġexperience":3249,"Ġpow":3250,"Ġhaw":3251,"Ġ400":3252,"Ġconstant":3253,"Ġdiscuss":3254,"Ġadvance":3255,"Ġmajority":3256,"Ġcourse":3257,"Ġcyclone":3258,"Ġlyrics":3259,"ging":3260,"hou":3261,"Ġcause":3262,"Ġbon":3263,"Ġlif":3264,"Ġthick":3265,"Ġital":3266,"Ġplans":3267,"rael":3268,"Ġconstit":3269,"Ġinside":3270,"Ġconstructed":3271,"Ġassociated":3272,"Ġocean":3273,"car":3274,"Ġmic":3275,"Ġenv":3276,"Ġmanila":3277,"Ġcaliforn":3278,"ba":3279,"isions":3280,"Ġhus":3281,"Ġ33":3282,"Ġcoach":3283,"Ġthemselves":3284,"Ġ90":3285,"Ġdistrib":3286,"Ġconsider":3287,"Ġstatus":3288,"Ġlaunched":3289,"Ġlargely":3290,"ny":3291,"vest":3292,"omet":3293,"riage":3294,"Ġwhether":3295,"Ġassigned":3296,"Ġattacks":3297,"Ġstarting":3298,"Ġinfluence":3299,"Ġsuffered":3300,"Ġbirds":3301,"Ġtower":3302,"Ġbond":3303,"Ġfans":3304,"Ġchall":3305,"ander":3306,"Ġblock":3307,"Ġdefend":3308,"Ġattacked":3309,"Ġancient":3310,"Ġscenes":3311,"ds":3312,"Ġsaint":3313,"enon":3314,"Ġmaster":3315,"Ġgro":3316,"Ġut":3317,"Ġbattles":3318,"itting":3319,"Ġservices":3320,"Ġ1950":3321,"Ġchanged":3322,"Ġlatin":3323,"mon":3324,"Ġign":3325,"Ġrare":3326,"Ġattr":3327,"Ġsomething":3328,"Ġslight":3329,"Ġgovernor":3330,"Ġgreatest":3331,"Ġoccurred":3332,"pre":3333,"sen":3334,"Ġbank":3335,"Ġisrael":3336,"Ġconference":3337,"Ġleave":3338,"Ġlearn":3339,"Ġlonger":3340,"Ġstudies":3341,"Ġcollection":3342,"Ġcontroll":3343,"Ġrefle":3344,"eter":3345,"era":3346,"Ġfest":3347,"Ġpurch":3348,"Ġded":3349,"Ġhair":3350,"Ġjim":3351,"Ġvan":3352,"Ġcontains":3353,"Ġinterse":3354,"Ġbrad":3355,"Ġcreate":3356,"Ġmarket":3357,"Ġdone":3358,"Ġtourn":3359,"Ġreach":3360,"Ġgard":3361,"pted":3362,"Ġscience":3363,"Ġabandon":3364,"Ġ1998":3365,"Ġdefence":3366,"Ġgreater":3367,"Ġbreed":3368,"Ġcommitte":3369,"Ġwheeler":3370,"eth":3371,"Ġess":3372,"Ġaw":3373,"Ġhu":3374,"Ġlived":3375,"Ġjose":3376,"ocr":3377,"ocks":3378,"Ġsched":3379,"Ġforms":3380,"Ġaccess":3381,"Ġedge":3382,"Ġartist":3383,"Ġincrease":3384,"Ġproposed":3385,"Ġcombat":3386,"Ġdouble":3387,"Ġcontemporary":3388,"Ġwing":3389,"Ġrear":3390,"aches":3391,"Ġstra":3392,"Ġkr":3393,"Ġ300":3394,"Ġscul":3395,"Ġserious":3396,"Ġstep":3397,"Ġlisted":3398,"Ġdeterm":3399,"Ġcelebr":3400,"vens":3401,"het":3402,"Ġwr":3403,"Ġfru":3404,"Ġjam":3405,"Ġending":3406,"Ġschools":3407,"Ġorganization":3408,"Ġafrican":3409,"Ġimmediately":3410,"Ġtakes":3411,"anced":3412,"Ġhund":3413,"Ġlie":3414,"Ġanal":3415,"Ġcompared":3416,"Ġsports":3417,"lands":3418,"Ġsecurity":3419,"Ġappears":3420,"Ġcroat":3421,"Ġ1940":3422,"Ġhundred":3423,"Ġtenn":3424,"Ġbound":3425,"Ġconver":3426,"Ġprogress":3427,"Ġmeant":3428,"Ġ2016":3429,"Ġcrow":3430,"Ġbuildings":3431,"Ġmeaning":3432,"Ġcalifornia":3433,"ee":3434,"Ġban":3435,"acing":3436,"Ġens":3437,"Ġnortheast":3438,"Ġremoved":3439,"Ġdaughter":3440,"lin":3441,"itor":3442,"Ġkind":3443,"ortun":3444,"Ġsha":3445,"Ġplanned":3446,"ously":3447,"Ġsyn":3448,"Ġterms":3449,"Ġsixth":3450,"Ġofficer":3451,"Ġcompetition":3452,"Ġindividual":3453,"Ġinformation":3454,"ault":3455,"Ġsov":3456,"onc":3457,"Ġpian":3458,"Ġdum":3459,"Ġdream":3460,"icated":3461,"leg":3462,"Ġross":3463,"alled":3464,"Ġdism":3465,"Ġphot":3466,"Ġpolic":3467,"hem":3468,"Ġwa":3469,"Ġfant":3470,"Ġpict":3471,"cend":3472,"Ġacqu":3473,"Ġstevens":3474,"Ġdrum":3475,"Ġannual":3476,"Ġ1930":3477,"Ġnewsp":3478,"Ġtraditional":3479,"erve":3480,"ergy":3481,"Ġbud":3482,"Ġdra":3483,"Ġreally":3484,"Ġrat":3485,"ulu":3486,"Ġunable":3487,"Ġperformances":3488,"Ġkh":3489,"Ġdefense":3490,"Ġlands":3491,"Ġwaters":3492,"Ġindependent":3493,"Ġmas":3494,"omm":3495,"Ġweap":3496,"Ġpeace":3497,"Ġtheme":3498,"Ġenter":3499,"Ġinitial":3500,"Ġtrees":3501,"aught":3502,"Ġmichigan":3503,"Ġselected":3504,"Ġrachel":3505,"zy":3506,"Ġfast":3507,"Ġdj":3508,"umed":3509,"ify":3510,"Ġmagn":3511,"Ġawarded":3512,"Ġfocus":3513,"onna":3514,"ifa":3515,"Ġspring":3516,"Ġrecover":3517,"Ġimper":3518,"Ġmission":3519,"de":3520,"uf":3521,"itation":3522,"Ġplant":3523,"Ġtrue":3524,"ounts":3525,"Ġclim":3526,"Ġheads":3527,"Ġvariety":3528,"Ġtracks":3529,"Ġvalley":3530,"Ġjournal":3531,"Ġcra":3532,"Ġpound":3533,"tered":3534,"Ġnumerous":3535,"Ġsingles":3536,"Ġrevolution":3537,"Ġepisodes":3538,"Ġpromin":3539,"Ġgods":3540,"Ġstandard":3541,"Ġissued":3542,"Ġfigure":3543,"Ġaccompan":3544,"bour":3545,"Ġtail":3546,"room":3547,"ellig":3548,"Ġspir":3549,"Ġimpact":3550,"Ġislands":3551,"Ġmarked":3552,"Ġmurder":3553,"Ġconducted":3554,"Ġstrength":3555,"Ġcand":3556,"Ġow":3557,"ales":3558,"Ġgiving":3559,"Ġjane":3560,"Ġvia":3561,"Ġnorthwest":3562,"Ġraised":3563,"Ġcovered":3564,"Ġcommented":3565,"Ġtwenty":3566,"Ġcasualties":3567,"Ġaer":3568,"Ġwrest":3569,"Ġbor":3570,"Ġpath":3571,"Ġpick":3572,"Ġthr":3573,"Ġgi":3574,"Ġfinanc":3575,"aily":3576,"Ġfranc":3577,"Ġpresence":3578,"Ġconfl":3579,"Ġmanagement":3580,"kan":3581,"Ġom":3582,"Ġbol":3583,"Ġreign":3584,"Ġthir":3585,"Ġga":3586,"ands":3587,"Ġgraph":3588,"Ġmonument":3589,"Ġmaxim":3590,"Ġcontrovers":3591,"Ġbegins":3592,"Ġhands":3593,"Ġtay":3594,"Ġdaily":3595,"chan":3596,"Ġtrail":3597,"Ġherself":3598,"ruction":3599,"Ġ42":3600,"Ġprep":3601,"Ġcarry":3602,"Ġmetal":3603,"Ġattempted":3604,"Ġexperi":3605,"Ġcommittee":3606,"bury":3607,"Ġsav":3608,"itude":3609,"Ġali":3610,"etr":3611,"Ġ37":3612,"Ġintellig":3613,"Ġactor":3614,"Ġmatches":3615,"Ġdirectly":3616,"Ġlooking":3617,"Ġgirl":3618,"Ġlady":3619,"Ġoffered":3620,"ologist":3621,"Ġminister":3622,"Ġportray":3623,"Ġresponsible":3624,"Ġwash":3625,"Ġanth":3626,"ump":3627,"istics":3628,"Ġcomposed":3629,"Ġweaken":3630,"Ġearned":3631,"vey":3632,"Ġ1993":3633,"Ġportug":3634,"Ġnearby":3635,"Ġbowl":3636,"Ġrule":3637,"Ġmultip":3638,"Ġhusband":3639,"Ġthrow":3640,"iva":3641,"aped":3642,"ipal":3643,"Ġtexas":3644,"Ġuses":3645,"Ġmarried":3646,"Ġalbums":3647,"Ġhelped":3648,"Ġattempts":3649,"Ġcombined":3650,"uing":3651,"Ġ39":3652,"Ġevac":3653,"Ġflow":3654,"Ġaccount":3655,"Ġspecific":3656,"Ġcrown":3657,"force":3658,"fl":3659,"berg":3660,"ellow":3661,"Ġclosed":3662,"Ġ47":3663,"Ġ1996":3664,"Ġsimp":3665,"Ġvilla":3666,"Ġhaifa":3667,"chester":3668,"Ġsource":3669,"Ġtheatre":3670,"Ġbaby":3671,"Ġchicago":3672,"Ġcatholic":3673,"ding":3674,"ya":3675,"ado":3676,"cting":3677,"etic":3678,"Ġkick":3679,"Ġpoly":3680,"Ġ1997":3681,"Ġchristmas":3682,"Ġproducer":3683,"Ġinspired":3684,"Ġtaylor":3685,"vement":3686,"Ġpag":3687,"Ġmile":3688,"Ġhorn":3689,"Ġnation":3690,"ada":3691,"anded":3692,"Ġnecess":3693,"Ġarts":3694,"Ġoffensive":3695,"Ġactive":3696,"Ġleaders":3697,"Ġxenon":3698,"Ġborder":3699,"iate":3700,"Ġbat":3701,"Ġstad":3702,"Ġsearch":3703,"Ġchann":3704,"Ġrough":3705,"Ġboats":3706,"ibly":3707,"Ġprec":3708,"Ġhighly":3709,"Ġwriters":3710,"Ġcontinue":3711,"onym":3712,"pool":3713,"Ġsides":3714,"Ġbass":3715,"oman":3716,"olk":3717,"Ġrate":3718,"rial":3719,"Ġcold":3720,"Ġrights":3721,"Ġphilipp":3722,"Ġfigures":3723,"pa":3724,"Ġsac":3725,"Ġsir":3726,"Ġswe":3727,"isl":3728,"Ġliver":3729,"Ġattend":3730,"Ġplaces":3731,"Ġsituation":3732,"Ġtask":3733,"Ġmun":3734,"isation":3735,"Ġthunder":3736,"urs":3737,"Ġrhy":3738,"Ġadvant":3739,"Ġsky":3740,"Ġhistorical":3741,"Ġpul":3742,"Ġscot":3743,"ondyl":3744,"Ġconserv":3745,"Ġextr":3746,"Ġmole":3747,"Ġchem":3748,"Ġhigher":3749,"Ġgalvest":3750,"Ġresulted":3751,"Ġhouses":3752,"Ġitalian":3753,"Ġgalveston":3754,"Ġcoming":3755,"Ġ1991":3756,"Ġmovie":3757,"Ġtermin":3758,"Ġ150":3759,"Ġextre":3760,"Ġpurp":3761,"Ġneeded":3762,"Ġwords":3763,"Ġvocals":3764,"Ġdocument":3765,"Ġbed":3766,"Ġfill":3767,"Ġpaper":3768,"anes":3769,"Ġlib":3770,"Ġaltern":3771,"Ġextended":3772,"Ġstruck":3773,"Ġpowerful":3774,"Ġallowing":3775,"Ġgeorg":3776,"Ġassembly":3777,"Ġtouchdown":3778,"Ġenvir":3779,"Ġda":3780,"uries":3781,"Ġdepend":3782,"aging":3783,"Ġlegisl":3784,"ospondyl":3785,"Ġmemorial":3786,"Ġaudience":3787,"Ġconditions":3788,"Ġintensity":3789,"Ġquestion":3790,"Ġmoment":3791,"Ġton":3792,"atops":3793,"Ġdeploy":3794,"Ġenj":3795,"Ġbob":3796,"Ġperfect":3797,"Ġcanc":3798,"Ġcharl":3799,"Ġrelief":3800,"Ġedition":3801,"Ġforeign":3802,"ograph":3803,"Ġhyd":3804,"Ġmeeting":3805,"Ġvocal":3806,"Ġrainfall":3807,"Ġbott":3808,"ening":3809,"Ġstating":3810,"anta":3811,"Ġrecent":3812,"Ġresidents":3813,"Ġmeans":3814,"Ġprepar":3815,"Ġincor":3816,"ylv":3817,"Ġrefused":3818,"Ġhistoric":3819,"Ġhonor":3820,"Ġultimately":3821,"Ġcomedy":3822,"Ġsoviet":3823,"ef":3824,"Ġid":3825,"Ġthing":3826,"Ġbeach":3827,"Ġyellow":3828,"Ġmarriage":3829,"Ġ65":3830,"Ġgenus":3831,"Ġ1994":3832,"Ġarmed":3833,"Ġtransl":3834,"Ġdistance":3835,"Ġexpress":3836,"Ġapproach":3837,"Ġjackson":3838,"Ġcarolina":3839,"Ġcrick":3840,"Ġhabit":3841,"olf":3842,"ruct":3843,"Ġsinger":3844,"Ġfamil":3845,"Ġconfir":3846,"Ġironcl":3847,"Ġheavily":3848,"Ġacademy":3849,"Ġsymb":3850,"Ġsculpt":3851,"lim":3852,"Ġps":3853,"Ġmind":3854,"Ġdv":3855,"ams":3856,"Ġ180":3857,"izing":3858,"Ġbranch":3859,"Ġparis":3860,"Ġpersonnel":3861,"Ġcastle":3862,"Ġseparate":3863,"Ġott":3864,"Ġbodies":3865,"Ġenviron":3866,"Ġcompl":3867,"Ġtext":3868,"Ġ51":3869,"Ġentertain":3870,"Ġsmith":3871,"Ġpolish":3872,"Ġlevels":3873,"Ġcultural":3874,"Ġsafe":3875,"Ġslightly":3876,"Ġjoseph":3877,"burg":3878,"Ġbid":3879,"Ġbene":3880,"Ġmess":3881,"Ġmouth":3882,"Ġnix":3883,"Ġrepe":3884,"Ġsust":3885,"Ġ76":3886,"Ġcountries":3887,"Ġadvent":3888,"Ġdeclared":3889,"Ġvehic":3890,"Ġburns":3891,"Ġstrike":3892,"Ġcondoms":3893,"Ġalex":3894,"Ġanalys":3895,"ees":3896,"Ġaven":3897,"Ġoil":3898,"ano":3899,"Ġgh":3900,"Ġsuc":3901,"Ġresc":3902,"Ġprison":3903,"Ġbarb":3904,"Ġrespond":3905,"Ġpresented":3906,"Ġpeaked":3907,"Ġsilver":3908,"Ġreduced":3909,"Ġrespectively":3910,"Ġpiano":3911,"Ġstadium":3912,"hold":3913,"house":3914,"the":3915,"Ġsister":3916,"icient":3917,"Ġaspect":3918,"Ġrug":3919,"use":3920,"ushed":3921,"Ġqual":3922,"Ġopportun":3923,"Ġlabor":3924,"Ġsnow":3925,"standing":3926,"Ġimperial":3927,"ylvania":3928,"gs":3929,"uated":3930,"iny":3931,"Ġcert":3932,"Ġfow":3933,"atives":3934,"Ġmis":3935,"Ġ44":3936,"Ġ1992":3937,"Ġinches":3938,"Ġelev":3939,"Ġproteins":3940,"Ġcontrast":3941,"Ġactivity":3942,"Ġcompletely":3943,"Ġparen":3944,"Ġpenns":3945,"Ġnick":3946,"Ġris":3947,"Ġray":3948,"Ġprince":3949,"Ġformation":3950,"Ġlock":3951,"Ġdirection":3952,"Ġsomers":3953,"Ġoh":3954,"ension":3955,"Ġartists":3956,"Ġalongside":3957,"Ġelse":3958,"Ġappearances":3959,"Ġactivities":3960,"Ġwounded":3961,"Ġtun":3962,"inal":3963,"Ġfair":3964,"Ġtoward":3965,"Ġreaction":3966,"Ġthous":3967,"Ġalkan":3968,"illa":3969,"Ġexpected":3970,"Ġsport":3971,"Ġthemes":3972,"Ġchris":3973,"Ġtyph":3974,"Ġefforts":3975,"Ġcopies":3976,"Ġsexual":3977,"Ġwidely":3978,"Ġfestival":3979,"ta":3980,"Ġreject":3981,"stone":3982,"ols":3983,"Ġ34":3984,"Ġremix":3985,"athan":3986,"Ġactually":3987,"Ġbroken":3988,"Ġcontinues":3989,"Ġissues":3990,"Ġconcluded":3991,"Ġliverpool":3992,"iber":3993,"rain":3994,"rance":3995,"Ġcore":3996,"Ġfres":3997,"Ġfaced":3998,"anas":3999,"Ġvess":4000,"aven":4001,"ift":4002,"abor":4003,"Ġtry":4004,"Ġ48":4005,"Ġjob":4006,"Ġsubs":4007,"Ġguest":4008,"Ġreports":4009,"pedo":4010,"Ġbasket":4011,"Ġsomal":4012,"Ġtorpedo":4013,"Ġtransferred":4014,"Ġdynast":4015,"Ġvirginia":4016,"Ġfruit":4017,"Ġwashington":4018,"Ġnixon":4019,"da":4020,"ka":4021,"track":4022,"ils":4023,"Ġmanaged":4024,"Ġtried":4025,"Ġbusch":4026,"while":4027,"Ġenjoy":4028,"Ġsomerset":4029,"bre":4030,"uff":4031,"Ġsor":4032,"Ġcab":4033,"Ġbishop":4034,"Ġfish":4035,"Ġlot":4036,"oul":4037,"Ġnest":4038,"Ġjul":4039,"emic":4040,"Ġexhib":4041,"Ġdise":4042,"arent":4043,"Ġaustralians":4044,"Ġlegal":4045,"Ġsays":4046,"Ġsoundtrack":4047,"Ġprimarily":4048,"Ġadmir":4049,"Ġwithdraw":4050,"Ġcandid":4051,"Ġpennsylvania":4052,"Ġta":4053,"hew":4054,"Ġbell":4055,"Ġdod":4056,"roll":4057,"Ġring":4058,"Ġenergy":4059,"Ġspain":4060,"Ġcalling":4061,"Ġstrugg":4062,"Ġpattern":4063,"Ġofficials":4064,"Ġkorean":4065,"Ġactions":4066,"ani":4067,"Ġreform":4068,"ented":4069,"Ġjos":4070,"ulations":4071,"Ġboat":4072,"Ġtherefore":4073,"Ġdesignated":4074,"Ġdescribes":4075,"Ġeffort":4076,"Ġdemocr":4077,"Ġsequence":4078,"Ġmosley":4079,"Ġlouis":4080,"Ġvietnam":4081,"Ġtournament":4082,"Ġparents":4083,"bon":4084,"greg":4085,"hood":4086,"writ":4087,"Ġaid":4088,"Ġsense":4089,"isher":4090,"Ġdance":4091,"oured":4092,"Ġnaz":4093,"Ġconsec":4094,"bery":4095,"Ġmanuf":4096,"Ġmarine":4097,"Ġweather":4098,"Ġattention":4099,"Ġinvasion":4100,"Ġ1942":4101,"Ġwinter":4102,"Ġexcav":4103,"Ġnuclear":4104,"Ġrevealed":4105,"Ġconflict":4106,"Ġmanufact":4107,"Ġsle":4108,"Ġwear":4109,"Ġfit":4110,"arian":4111,"ication":4112,"ental":4113,"utions":4114,"ogue":4115,"Ġ49":4116,"Ġ52":4117,"Ġ182":4118,"Ġdefensive":4119,"Ġseasons":4120,"Ġsuppl":4121,"Ġmainly":4122,"Ġinstr":4123,"Ġfeaturing":4124,"iami":4125,"Ġdemonst":4126,"Ġresulting":4127,"Ġtypically":4128,"Ġbecomes":4129,"Ġaccepted":4130,"ris":4131,"Ġfiction":4132,"ingu":4133,"ura":4134,"idian":4135,"imony":4136,"Ġscale":4137,"Ġfinals":4138,"Ġconcent":4139,"Ġpractice":4140,"uzz":4141,"gu":4142,"Ġalone":4143,"Ġplays":4144,"Ġ181":4145,"Ġsteam":4146,"Ġlanding":4147,"Ġmedical":4148,"Ġauthority":4149,"Ġconnect":4150,"Ġflying":4151,"Ġdomest":4152,"Ġspirit":4153,"Ġfowler":4154,"ech":4155,"Ġtree":4156,"Ġfully":4157,"Ġmir":4158,"Ġmiami":4159,"Ġdun":4160,"usion":4161,"Ġroles":4162,"Ġquality":4163,"Ġminnes":4164,"Ġartic":4165,"Ġdescription":4166,"Ġmob":4167,"Ġchampion":4168,"Ġillust":4169,"Ġhotel":4170,"Ġliber":4171,"ceeded":4172,"Ġangeles":4173,"Ġchannel":4174,"Ġminnesota":4175,"Ġbh":4176,"enant":4177,"Ġonto":4178,"Ġneigh":4179,"Ġscoring":4180,"Ġability":4181,"Ġrecomm":4182,"Ġ64":4183,"Ġassault":4184,"ledge":4185,"Ġdoub":4186,"Ġmeanwhile":4187,"Ġlosing":4188,"Ġpoetry":4189,"urban":4190,"Ġfinancial":4191,"Ġentertainment":4192,"Ġtank":4193,"Ġwave":4194,"Ġinch":4195,"Ġlin":4196,"acher":4197,"Ġheight":4198,"Ġkent":4199,"apo":4200,"Ġenemy":4201,"Ġamount":4202,"Ġ46":4203,"Ġapparent":4204,"Ġelected":4205,"Ġdistinct":4206,"Ġexped":4207,"Ġmodel":4208,"Ġobserved":4209,"Ġvolun":4210,"ope":4211,"Ġbint":4212,"Ġmatt":4213,"esh":4214,"ican":4215,"Ġrid":4216,"Ġwhy":4217,"Ġmanchester":4218,"Ġspl":4219,"Ġspread":4220,"Ġ55":4221,"Ġoffer":4222,"Ġcolumn":4223,"Ġfloor":4224,"Ġsurre":4225,"Ġportion":4226,"fully":4227,"Ġshowed":4228,"arked":4229,"Ġencoun":4230,"Ġsoutheast":4231,"Ġscotland":4232,"Ġbintulu":4233,"cript":4234,"kel":4235,"mun":4236,"rate":4237,"ux":4238,"Ġtik":4239,"Ġaim":4240,"Ġka":4241,"ersh":4242,"Ġmechan":4243,"Ġrelatively":4244,"Ġacting":4245,"Ġdrive":4246,"Ġmeridian":4247,"Ġnarrow":4248,"Ġsurrounding":4249,"Ġtyphoon":4250,"bed":4251,"lers":4252,"where":4253,"Ġcities":4254,"Ġmog":4255,"Ġdin":4256,"ela":4257,"essa":4258,"Ġemot":4259,"ologists":4260,"Ġleader":4261,"Ġowned":4262,"Ġtrial":4263,"Ġ1920":4264,"Ġplanet":4265,"Ġinfluenced":4266,"Ġhomes":4267,"Ġindependence":4268,"Ġsources":4269,"Ġmaximum":4270,"Ġincorpor":4271,"Ġenvironment":4272,"Ġdie":4273,"Ġperm":4274,"Ġmeyer":4275,"Ġquite":4276,"Ġdoing":4277,"Ġ1941":4278,"Ġsales":4279,"Ġbaseball":4280,"Ġpaint":4281,"Ġrussian":4282,"Ġadvantage":4283,"iro":4284,"pole":4285,"ona":4286,"Ġash":4287,"essions":4288,"Ġnote":4289,"Ġshel":4290,"Ġcolumb":4291,"Ġspect":4292,"Ġnothing":4293,"Ġemph":4294,"Ġprotein":4295,"Ġtypes":4296,"Ġbeyonc":4297,"Ġcannot":4298,"Ġhawai":4299,"rid":4300,"Ġanderson":4301,"Ġlives":4302,"Ġnico":4303,"Ġwebs":4304,"Ġcoal":4305,"Ġapart":4306,"Ġsets":4307,"Ġexpressed":4308,"Ġchronic":4309,"Ġmountains":4310,"Ġintelligence":4311,"bl":4312,"can":4313,"town":4314,"onents":4315,"Ġbit":4316,"Ġfat":4317,"Ġdress":4318,"Ġeth":4319,"Ġstan":4320,"uled":4321,"oper":4322,"Ġorb":4323,"Ġtwice":4324,"Ġcook":4325,"Ġflag":4326,"Ġproduce":4327,"Ġwrite":4328,"Ġchurchill":4329,"Ġpassing":4330,"Ġoccasion":4331,"Ġorganized":4332,"Ġstanding":4333,"Ġrepresented":4334,"Ġletter":4335,"Ġeyes":4336,"Ġkilomet":4337,"Ġpotential":4338,"Ġpiece":4339,"Ġdissip":4340,"Ġadopted":4341,"Ġcadm":4342,"Ġabandoned":4343,"rical":4344,"Ġwels":4345,"Ġcateg":4346,"Ġfan":4347,"road":4348,"acement":4349,"Ġkak":4350,"ills":4351,"Ġadvert":4352,"Ġperman":4353,"Ġspecim":4354,"Ġ1986":4355,"Ġglass":4356,"Ġrichmond":4357,"Ġstructures":4358,"Ġelectron":4359,"Ġflooding":4360,"Ġnewspaper":4361,"cy":4362,"cle":4363,"Ġdang":4364,"ctive":4365,"Ġunkn":4366,"Ġattrib":4367,"Ġcapture":4368,"Ġfarm":4369,"Ġbehav":4370,"Ġfreeway":4371,"Ġbattery":4372,"Ġbattleship":4373,"Ġrugby":4374,"Ġcadmium":4375,"Ġwelsh":4376,"ex":4377,"po":4378,"rane":4379,"uous":4380,"Ġpap":4381,"Ġandrew":4382,"asy":4383,"Ġkir":4384,"Ġchair":4385,"Ġsud":4386,"claim":4387,"Ġbroke":4388,"Ġdivided":4389,"Ġfounded":4390,"Ġyouth":4391,"Ġtitled":4392,"Ġauthorities":4393,"Ġearliest":4394,"Ġsites":4395,"Ġprominent":4396,"Ġemphas":4397,"gal":4398,"yr":4399,"ena":4400,"Ġpu":4401,"Ġhors":4402,"Ġlane":4403,"ette":4404,"Ġarrest":4405,"Ġcompound":4406,"Ġadj":4407,"Ġtend":4408,"Ġspeak":4409,"Ġkept":4410,"Ġviewers":4411,"Ġphysical":4412,"Ġmentioned":4413,"Ġstraight":4414,"Ġcrowd":4415,"Ġavenue":4416,"wide":4417,"Ġcit":4418,"Ġfolk":4419,"isa":4420,"Ġll":4421,"Ġreact":4422,"ults":4423,"izes":4424,"Ġweak":4425,"Ġgrass":4426,"issipp":4427,"Ġworkers":4428,"Ġobt":4429,"Ġ1988":4430,"Ġreturning":4431,"Ġmississipp":4432,"ancy":4433,"Ġtitles":4434,"Ġbelieve":4435,"Ġillino":4436,"Ġachieved":4437,"Ġdedicated":4438,"Ġbasketball":4439,"Ġtikal":4440,"nospondyl":4441,"Ġtrou":4442,"Ġsens":4443,"Ġcem":4444,"Ġros":4445,"Ġtra":4446,"Ġspot":4447,"Ġfilming":4448,"Ġactress":4449,"Ġedward":4450,"Ġoperated":4451,"Ġofficially":4452,"Ġaffected":4453,"Ġcurrently":4454,"Ġmeasure":4455,"Ġscholars":4456,"Ġdomestic":4457,"Ġmogad":4458,"Ġfred":4459,"Ġdog":4460,"Ġhung":4461,"acts":4462,"Ġjur":4463,"Ġattended":4464,"ems":4465,"send":4466,"ours":4467,"Ġinterchange":4468,"Ġolder":4469,"Ġcampus":4470,"Ġtemnospondyl":4471,"Ġbasis":4472,"Ġengineer":4473,"Ġchapel":4474,"Ġrhodes":4475,"Ġmississippi":4476,"Ġcemeter":4477,"Ġtact":4478,"Ġsar":4479,"Ġgib":4480,"Ġshape":4481,"Ġ41":4482,"Ġcolony":4483,"Ġfoundation":4484,"Ġslam":4485,"Ġjohnson":4486,"Ġbattalions":4487,"Ġpaid":4488,"Ġcouple":4489,"Ġletters":4490,"Ġgrowing":4491,"Ġencour":4492,"Ġindividuals":4493,"Ġbraat":4494,"Ġchallen":4495,"iot":4496,"Ġdar":4497,"Ġlb":4498,"Ġproved":4499,"Ġshar":4500,"Ġunf":4501,"Ġagric":4502,"Ġweight":4503,"Ġsinging":4504,"aha":4505,"Ġclassic":4506,"Ġkilling":4507,"Ġhistorian":4508,"Ġgolden":4509,"Ġjourney":4510,"Ġequipment":4511,"Ġdetermined":4512,"Ġweapons":4513,"Ġmultiple":4514,"Ġcricket":4515,"Ġunknown":4516,"bird":4517,"lam":4518,"wise":4519,"Ġiv":4520,"Ġsr":4521,"Ġgra":4522,"Ġchor":4523,"Ġ43":4524,"Ġimages":4525,"Ġopera":4526,"Ġlaid":4527,"Ġeurop":4528,"Ġturner":4529,"Ġextra":4530,"Ġprotection":4531,"Ġorders":4532,"Ġsenior":4533,"Ġunlike":4534,"hl":4535,"iations":4536,"Ġcin":4537,"Ġdraft":4538,"Ġhms":4539,"Ġlam":4540,"Ġnes":4541,"aming":4542,"Ġcontain":4543,"Ġallied":4544,"Ġconsisted":4545,"Ġfrag":4546,"Ġtownsend":4547,"Ġgrew":4548,"Ġpossibly":4549,"Ġreligion":4550,"Ġeconomic":4551,"Ġbeyond":4552,"Ġdigital":4553,"Ġrapidly":4554,"Ġanalysis":4555,"Ġkakapo":4556,"Ġmogadish":4557,"more":4558,"uj":4559,"yan":4560,"Ġic":4561,"Ġbost":4562,"Ġdry":4563,"Ġeat":4564,"Ġstock":4565,"Ġalab":4566,"Ġvic":4567,"ips":4568,"Ġib":4569,"Ġ56":4570,"Ġattor":4571,"athus":4572,"Ġapple":4573,"Ġelement":4574,"Ġstudent":4575,"Ġ179":4576,"Ġroads":4577,"Ġsupporting":4578,"Ġcausing":4579,"Ġprojects":4580,"Ġhope":4581,"Ġexecutive":4582,"Ġrosebery":4583,"Ġdynasty":4584,"Ġmeyerbe":4585,"hu":4586,"rative":4587,"win":4588,"Ġbull":4589,"isters":4590,"Ġdub":4591,"Ġreaching":4592,"Ġeag":4593,"umber":4594,"istry":4595,"Ġshiva":4596,"Ġnotable":4597,"Ġ93":4598,"Ġfollows":4599,"Ġamericans":4600,"Ġsupply":4601,"Ġadvanced":4602,"Ġwalpole":4603,"Ġchoice":4604,"Ġcomposition":4605,"prise":4606,"Ġagricult":4607,"Ġmogadishu":4608,"Ġmeyerbeer":4609,"ek":4610,"tv":4611,"Ġbc":4612,"Ġsend":4613,"Ġyue":4614,"iana":4615,"Ġcomputer":4616,"Ġfinkel":4617,"Ġprime":4618,"Ġseconds":4619,"Ġentrance":4620,"Ġarms":4621,"airs":4622,"key":4623,"Ġskin":4624,"Ġpitcher":4625,"Ġclaims":4626,"Ġpromoted":4627,"Ġcerem":4628,"Ġsecretary":4629,"Ġtarget":4630,"Ġdisease":4631,"Ġnicole":4632,"Ġfinkelstein":4633,"pass":4634,"Ġur":4635,"Ġtessa":4636,"Ġfired":4637,"Ġmd":4638,"Ġmut":4639,"Ġell":4640,"Ġheard":4641,"Ġcongress":4642,"Ġkar":4643,"Ġneut":4644,"ogen":4645,"Ġ97":4646,"Ġdoctor":4647,"Ġminim":4648,"Ġ1985":4649,"Ġ1944":4650,"Ġpropos":4651,"Ġknowledge":4652,"Ġsettlement":4653,"Ġidentified":4654,"Ġtreaty":4655,"Ġottoman":4656,"Ġconsecutive":4657,"Ġkilometres":4658,"haps":4659,"Ġahead":4660,"orter":4661,"ola":4662,"Ġrise":4663,"oty":4664,"Ġkg":4665,"Ġkur":4666,"Ġ53":4667,"Ġflank":4668,"Ġactors":4669,"Ġraj":4670,"Ġrequire":4671,"Ġsuggests":4672,"Ġcriticized":4673,"Ġanimals":4674,"Ġseems":4675,"Ġadministration":4676,"Ġlieut":4677,"Ġfrancis":4678,"Ġlibr":4679,"don":4680,"vin":4681,"Ġcry":4682,"Ġfix":4683,"Ġindu":4684,"Ġgained":4685,"Ġclar":4686,"Ġperhaps":4687,"Ġnewly":4688,"Ġmend":4689,"Ġcharge":4690,"Ġsteel":4691,"Ġ120":4692,"Ġopin":4693,"Ġtrip":4694,"Ġpriest":4695,"Ġreference":4696,"Ġhait":4697,"Ġanimal":4698,"Ġarchaeological":4699,"Ġpieces":4700,"Ġportugues":4701,"Ġsustained":4702,"Ġillinois":4703,"Ġalabama":4704,"ala":4705,"Ġdur":4706,"uting":4707,"Ġchos":4708,"Ġmales":4709,"Ġnominated":4710,"Ġwitness":4711,"Ġphilippines":4712,"Ġfresh":4713,"Ġvolunte":4714,"Ġbraathens":4715,"Ġportuguese":4716,"ez":4717,"gn":4718,"Ġig":4719,"Ġwed":4720,"Ġbbc":4721,"rol":4722,"ighth":4723,"gend":4724,"Ġfeed":4725,"Ġ1964":4726,"Ġpitched":4727,"Ġburied":4728,"Ġfunction":4729,"Ġwalls":4730,"Ġchapter":4731,"Ġescape":4732,"Ġresults":4733,"Ġdropped":4734,"Ġconstitution":4735,"Ġsimply":4736,"bitt":4737,"Ġtint":4738,"Ġsought":4739,"Ġcust":4740,"Ġcub":4741,"Ġfought":4742,"Ġdata":4743,"Ġet":4744,"iring":4745,"astic":4746,"Ġpern":4747,"Ġsecondary":4748,"Ġmatter":4749,"Ġvictim":4750,"Ġclean":4751,"Ġcases":4752,"Ġsurviv":4753,"ushing":4754,"Ġsubsequent":4755,"Ġplatform":4756,"Ġliterature":4757,"cul":4758,"mes":4759,"tle":4760,"Ġfal":4761,"Ġpine":4762,"adel":4763,"Ġreserv":4764,"Ġ54":4765,"Ġ57":4766,"Ġserve":4767,"Ġ62":4768,"Ġstudios":4769,"Ġlandfall":4770,"Ġprovince":4771,"Ġantimony":4772,"Ġdeliver":4773,"Ġdebuted":4774,"Ġcharts":4775,"Ġconfirmed":4776,"Ġattorney":4777,"Ġchosen":4778,"Ġcart":4779,"itable":4780,"oms":4781,"thy":4782,"Ġrub":4783,"Ġconsequ":4784,"ella":4785,"outs":4786,"Ġjoin":4787,"Ġdoor":4788,"Ġappl":4789,"Ġ1987":4790,"Ġpasses":4791,"Ġira":4792,"Ġpoems":4793,"Ġrailway":4794,"Ġolympic":4795,"Ġdismiss":4796,"Ġpolicy":4797,"onymous":4798,"Ġdvd":4799,"Ġunsu":4800,"iance":4801,"ordin":4802,"Ġcontent":4803,"Ġjoint":4804,"Ġ95":4805,"Ġregions":4806,"Ġbarrow":4807,"Ġraid":4808,"heless":4809,"Ġsolo":4810,"Ġlabel":4811,"Ġpenins":4812,"Ġcondition":4813,"Ġinjury":4814,"Ġinstitute":4815,"Ġgranted":4816,"body":4817,"kin":4818,"lings":4819,"rons":4820,"Ġsarn":4821,"iles":4822,"Ġgas":4823,"ador":4824,"Ġhell":4825,"Ġyank":4826,"Ġshare":4827,"Ġclou":4828,"Ġcontaining":4829,"Ġfey":4830,"Ġassass":4831,"Ġunderground":4832,"Ġfilmed":4833,"Ġsynt":4834,"Ġsouthwest":4835,"Ġincident":4836,"Ġzhou":4837,"Ġsetting":4838,"Ġdrama":4839,"Ġcreation":4840,"Ġevening":4841,"Ġrome":4842,"Ġvisited":4843,"Ġweekly":4844,"helm":4845,"Ġimportance":4846,"Ġwooden":4847,"Ġcriticism":4848,"Ġboston":4849,"Ġlieutenant":4850,"Ġtintin":4851,"aen":4852,"met":4853,"aling":4854,"Ġvice":4855,"Ġye":4856,"Ġlew":4857,"Ġlegend":4858,"Ġtrain":4859,"Ġ600":4860,"Ġwars":4861,"Ġconsp":4862,"Ġdepth":4863,"Ġbelong":4864,"Ġ1984":4865,"Ġ1972":4866,"Ġfamous":4867,"Ġpublication":4868,"Ġvisual":4869,"Ġvirt":4870,"Ġincreasingly":4871,"Ġbeauty":4872,"Ġnecessary":4873,"Ġwebsite":4874,"Ġfro":4875,"Ġpy":4876,"alle":4877,"Ġluc":4878,"Ġgulf":4879,"Ġrit":4880,"Ġconne":4881,"Ġatm":4882,"appe":4883,"Ġshr":4884,"Ġroof":4885,"ipl":4886,"Ġkne":4887,"Ġportra":4888,"Ġ1947":4889,"Ġvaranas":4890,"Ġturning":4891,"Ġdelay":4892,"Ġcrossing":4893,"Ġmotor":4894,"Ġpromotion":4895,"Ġgrowth":4896,"Ġceres":4897,"Ġproblem":4898,"Ġmaintained":4899,"Ġcontrolled":4900,"Ġvaranasi":4901,"jo":4902,"sw":4903,"ule":4904,"Ġice":4905,"Ġtanks":4906,"Ġbes":4907,"ishes":4908,"Ġgang":4909,"Ġasia":4910,"Ġuns":4911,"Ġcompar":4912,"Ġteacher":4913,"Ġeva":4914,"Ġdram":4915,"Ġanything":4916,"Ġstarts":4917,"Ġcorre":4918,"Ġwilliams":4919,"Ġargent":4920,"Ġargued":4921,"Ġodaen":4922,"Ġversions":4923,"Ġfamilies":4924,"Ġnesbitt":4925,"Ġatmosp":4926,"ych":4927,"heas":4928,"Ġcav":4929,"Ġfame":4930,"elle":4931,"olved":4932,"thur":4933,"Ġrival":4934,"Ġjup":4935,"Ġrod":4936,"Ġcompr":4937,"Ġcool":4938,"Ġ61":4939,"Ġretired":4940,"Ġrestaur":4941,"Ġavoid":4942,"Ġplanning":4943,"Ġtorres":4944,"Ġagreement":4945,"works":4946,"Ġtemperature":4947,"Ġseventh":4948,"Ġdumont":4949,"Ġodaenathus":4950,"cop":4951,"hire":4952,"Ġba":4953,"Ġfung":4954,"Ġpoll":4955,"Ġgord":4956,"ayer":4957,"oted":4958,"umes":4959,"aka":4960,"Ġtruth":4961,"ovic":4962,"Ġreconst":4963,"Ġ72":4964,"Ġ1989":4965,"Ġ1969":4966,"Ġexplained":4967,"Ġsumm":4968,"Ġpainting":4969,"Ġcolonial":4970,"Ġlosses":4971,"clusion":4972,"Ġbottom":4973,"Ġrejected":4974,"Ġadmiral":4975,"Ġsarnia":4976,"ij":4977,"oe":4978,"Ġurban":4979,"erts":4980,"edar":4981,"Ġbru":4982,"Ġfash":4983,"station":4984,"ivity":4985,"Ġjon":4986,"Ġconve":4987,"Ġvul":4988,"Ġadap":4989,"Ġadapt":4990,"Ġcarl":4991,"Ġsubm":4992,"Ġwrites":4993,"Ġsurvey":4994,"Ġtowns":4995,"Ġextensive":4996,"Ġpalest":4997,"Ġtechnology":4998,"Ġfemales":4999,"Ġindustrial":5000,"Ġfaith":5001,"Ġconnected":5002,"Ġslowly":5003,"Ġproperty":5004,"han":5005,"Ġmig":5006,"Ġgives":5007,"ading":5008,"iments":5009,"Ġkings":5010,"Ġrot":5011,"Ġunus":5012,"Ġunique":5013,"Ġgram":5014,"Ġ96":5015,"Ġregister":5016,"Ġdefin":5017,"Ġsubmar":5018,"Ġ130":5019,"ancing":5020,"Ġsystems":5021,"ographer":5022,"Ġoxford":5023,"Ġthunderbird":5024,"Ġpeninsula":5025,"iant":5026,"Ġtel":5027,"erted":5028,"Ġcamb":5029,"Ġouter":5030,"Ġdw":5031,"Ġhart":5032,"Ġegg":5033,"leman":5034,"ety":5035,"Ġseg":5036,"Ġken":5037,"Ġchur":5038,"Ġcomes":5039,"Ġsund":5040,"Ġneither":5041,"Ġresemb":5042,"Ġ73":5043,"Ġsevere":5044,"azz":5045,"Ġhelms":5046,"Ġfailure":5047,"Ġideas":5048,"Ġentirely":5049,"Ġscheduled":5050,"Ġrisk":5051,"Ġjupiter":5052,"mark":5053,"Ġtheory":5054,"stream":5055,"ote":5056,"Ġitaly":5057,"Ġchose":5058,"odon":5059,"Ġrecently":5060,"Ġreserve":5061,"Ġ81":5062,"Ġends":5063,"awa":5064,"Ġdistingu":5065,"Ġvalue":5066,"Ġcommonly":5067,"Ġphilos":5068,"Ġtransportation":5069,"Ġemployed":5070,"Ġscottish":5071,"Ġweakened":5072,"inity":5073,"Ġsave":5074,"Ġselling":5075,"Ġwins":5076,"Ġhat":5077,"Ġgreek":5078,"Ġrum":5079,"Ġvent":5080,"ifying":5081,"oren":5082,"Ġshaped":5083,"Ġarc":5084,"Ġtrust":5085,"Ġtrying":5086,"Ġdescend":5087,"Ġbright":5088,"Ġremn":5089,"Ġundert":5090,"Ġturns":5091,"Ġbelief":5092,"Ġfreed":5093,"Ġvolume":5094,"Ġcreating":5095,"Ġpremi":5096,"Ġfellow":5097,"Ġdutch":5098,"Ġomaha":5099,"Ġprepared":5100,"Ġroughly":5101,"Ġhorses":5102,"heastern":5103,"een":5104,"Ġtall":5105,"onent":5106,"Ġwides":5107,"Ġmong":5108,"Ġdated":5109,"asure":5110,"iced":5111,"Ġlov":5112,"Ġgain":5113,"Ġstore":5114,"Ġextend":5115,"Ġcontest":5116,"Ġcontained":5117,"Ġplaystation":5118,"izations":5119,"Ġcooper":5120,"Ġspend":5121,"Ġvert":5122,"Ġframe":5123,"Ġ85":5124,"Ġapplic":5125,"Ġarmor":5126,"Ġmoon":5127,"Ġfinds":5128,"Ġfinding":5129,"Ġsignificantly":5130,"Ġfacilities":5131,"Ġcolonel":5132,"Ġfavour":5133,"Ġtreatment":5134,"Ġwilhelm":5135,"Ġparticipated":5136,"Ġcontributed":5137,"Ġvictoria":5138,"Ġfrequently":5139,"Ġfantasy":5140,"Ġmist":5141,"Ġmike":5142,"Ġthin":5143,"ansas":5144,"Ġ700":5145,"Ġmush":5146,"Ġmax":5147,"Ġminer":5148,"Ġzone":5149,"Ġworldwide":5150,"Ġsimple":5151,"Ġ1981":5152,"Ġopposed":5153,"Ġjeff":5154,"Ġtechnique":5155,"Ġinnis":5156,"Ġregarded":5157,"Ġsurrender":5158,"fort":5159,"kare":5160,"rete":5161,"Ġcd":5162,"Ġmap":5163,"Ġhang":5164,"ulate":5165,"rier":5166,"Ġadult":5167,"Ġsole":5168,"Ġparalle":5169,"phia":5170,"Ġphase":5171,"Ġserving":5172,"Ġangle":5173,"bridge":5174,"Ġpenal":5175,"Ġinnings":5176,"Ġmccall":5177,"Ġpremier":5178,"Ġeconomy":5179,"Ġoccupied":5180,"Ġpowers":5181,"Ġexperienced":5182,"adelphia":5183,"Ġgordon":5184,"och":5185,"Ġaired":5186,"Ġsin":5187,"Ġcited":5188,"Ġbart":5189,"iled":5190,"Ġgross":5191,"irt":5192,"Ġrating":5193,"Ġsector":5194,"oked":5195,"issance":5196,"Ġ800":5197,"Ġhighlight":5198,"Ġgeneration":5199,"Ġstrateg":5200,"Ġdeaths":5201,"Ġhousehold":5202,"Ġpopularity":5203,"Ġlester":5204,"timore":5205,"Ġcardiff":5206,"Ġbaltimore":5207,"Ġnegot":5208,"Ġaspects":5209,"Ġsupplies":5210,"Ġmushroom":5211,"Ġere":5212,"Ġtable":5213,"Ġcaught":5214,"Ġbac":5215,"Ġpin":5216,"Ġmine":5217,"Ġdates":5218,"Ġstations":5219,"Ġisol":5220,"Ġfear":5221,"Ġmarines":5222,"Ġbrid":5223,"Ġaccident":5224,"Ġsoft":5225,"Ġcollected":5226,"Ġ1918":5227,"Ġdeclined":5228,"Ġsuccessfully":5229,"Ġrecognized":5230,"Ġdegree":5231,"Ġegyptian":5232,"Ġsemi":5233,"Ġpurchased":5234,"Ġhydro":5235,"Ġcinem":5236,"gers":5237,"Ġsort":5238,"Ġfict":5239,"isers":5240,"Ġlu":5241,"Ġnas":5242,"Ġstages":5243,"lywood":5244,"Ġub":5245,"Ġrih":5246,"Ġpros":5247,"iful":5248,"sey":5249,"Ġusa":5250,"Ġresident":5251,"Ġoverse":5252,"Ġ98":5253,"Ġengaged":5254,"Ġoccas":5255,"Ġarrival":5256,"Ġswed":5257,"Ġlooked":5258,"Ġhamels":5259,"Ġmassive":5260,"ships":5261,"Ġbriefly":5262,"Ġbreeding":5263,"Ġrihanna":5264,"zo":5265,"eratops":5266,"Ġbern":5267,"Ġdrop":5268,"Ġdrew":5269,"Ġeld":5270,"Ġaltar":5271,"Ġresist":5272,"Ġ59":5273,"aret":5274,"Ġinterior":5275,"wealth":5276,"Ġ77":5277,"Ġtransit":5278,"Ġ1943":5279,"Ġexpanded":5280,"Ġ1968":5281,"Ġcrus":5282,"Ġraaf":5283,"Ġstret":5284,"Ġbegun":5285,"Ġcommonwealth":5286,"Ġeffective":5287,"Ġcoastal":5288,"Ġgetting":5289,"Ġstopped":5290,"Ġbrothers":5291,"Ġmartin":5292,"Ġliterary":5293,"Ġgradually":5294,"Ġdaniel":5295,"Ġcroatia":5296,"Ġdjed":5297,"Ġmunic":5298,"Ġlibrary":5299,"iqu":5300,"ns":5301,"pread":5302,"set":5303,"Ġts":5304,"Ġhaven":5305,"Ġnerv":5306,"Ġdeities":5307,"aine":5308,"apes":5309,"Ġneck":5310,"Ġplum":5311,"Ġlear":5312,"eller":5313,"Ġcontact":5314,"Ġamph":5315,"Ġ66":5316,"Ġ82":5317,"Ġ1965":5318,"Ġconcrete":5319,"Ġphiladelphia":5320,"Ġmotion":5321,"Ġcommissioned":5322,"Ġrules":5323,"Ġmccart":5324,"Ġimproved":5325,"Ġcells":5326,"Ġbudget":5327,"Ġfashion":5328,"Ġwidespread":5329,"Ġdjedkare":5330,"mal":5331,"Ġsie":5332,"ato":5333,"Ġmand":5334,"Ġdial":5335,"Ġhib":5336,"unk":5337,"Ġplate":5338,"Ġlee":5339,"Ġworship":5340,"Ġmarsh":5341,"weight":5342,"Ġ71":5343,"Ġgameplay":5344,"Ġdecades":5345,"Ġoldest":5346,"Ġ1939":5347,"Ġadditionally":5348,"Ġeverything":5349,"Ġbillion":5350,"Ġholding":5351,"Ġregarding":5352,"Ġviolence":5353,"Ġpilot":5354,"Ġcrazy":5355,"Ġexpedition":5356,"iences":5357,"mat":5358,"uate":5359,"Ġtone":5360,"Ġak":5361,"err":5362,"rey":5363,"Ġble":5364,"Ġfuel":5365,"atus":5366,"Ġstones":5367,"ider":5368,"Ġseat":5369,"resp":5370,"Ġrecru":5371,"Ġfinish":5372,"Ġflu":5373,"Ġheaded":5374,"Ġdeveloping":5375,"Ġallows":5376,"Ġexplos":5377,"Ġsolid":5378,"Ġturk":5379,"Ġearthqu":5380,"Ġproducers":5381,"white":5382,"Ġexisting":5383,"Ġreinforce":5384,"Ġdrawn":5385,"Ġresponded":5386,"Ġchorus":5387,"Ġunsuccess":5388,"Ġknew":5389,"ias":5390,"za":5391,"Ġwwe":5392,"Ġrivers":5393,"Ġalf":5394,"eman":5395,"illo":5396,"Ġroutes":5397,"ieval":5398,"Ġmarc":5399,"Ġcenturies":5400,"Ġspeaking":5401,"Ġcanal":5402,"Ġappeal":5403,"Ġsteve":5404,"Ġreceiving":5405,"Ġcrime":5406,"iversary":5407,"graded":5408,"Ġmedieval":5409,"Ġ1914":5410,"Ġcorpor":5411,"Ġwatch":5412,"Ġreasons":5413,"Ġnormal":5414,"Ġathletes":5415,"Ġrepeated":5416,"Ġsudden":5417,"Ġtemnospondyls":5418,"Ġapplewhite":5419,"mans":5420,"oys":5421,"Ġandy":5422,"Ġnba":5423,"Ġhear":5424,"ivered":5425,"eton":5426,"Ġanonymous":5427,"Ġcham":5428,"Ġchains":5429,"onder":5430,"Ġ94":5431,"Ġ1946":5432,"Ġclassified":5433,"Ġmyth":5434,"Ġstreets":5435,"Ġprotect":5436,"Ġfalls":5437,"Ġfocused":5438,"Ġastron":5439,"Ġlearned":5440,"Ġconverted":5441,"lines":5442,"tw":5443,"itors":5444,"Ġhind":5445,"Ġeighth":5446,"Ġkit":5447,"anda":5448,"ava":5449,"okes":5450,"assy":5451,"ube":5452,"Ġagent":5453,"Ġdisappe":5454,"Ġprefer":5455,"Ġgray":5456,"Ġadding":5457,"Ġterror":5458,"Ġ110":5459,"Ġ177":5460,"Ġ1971":5461,"Ġdelivered":5462,"Ġpolitics":5463,"Ġpalace":5464,"Ġdecline":5465,"Ġhills":5466,"Ġintroduction":5467,"Ġtomb":5468,"Ġassistant":5469,"Ġdetails":5470,"Ġsculpture":5471,"Ġbenef":5472,"la":5473,"Ġopt":5474,"Ġbats":5475,"Ġfel":5476,"Ġpack":5477,"Ġhan":5478,"olis":5479,"Ġron":5480,"Ġrabb":5481,"Ġjac":5482,"ifically":5483,"Ġexclus":5484,"Ġregional":5485,"Ġcapable":5486,"Ġdivisions":5487,"Ġbelg":5488,"Ġbelt":5489,"Ġdisturb":5490,"Ġlasted":5491,"Ġsentence":5492,"Ġfields":5493,"Ġpurs":5494,"Ġchampionships":5495,"Ġsettlers":5496,"Ġode":5497,"Ġvehicles":5498,"Ġopportunity":5499,"Ġpaintings":5500,"Ġpermanent":5501,"Ġlewis":5502,"Ġadapted":5503,"Ġchurches":5504,"cription":5505,"Ġai":5506,"asc":5507,"Ġrural":5508,"Ġleaves":5509,"essed":5510,"Ġsche":5511,"Ġindig":5512,"Ġformula":5513,"Ġperforming":5514,"Ġ1975":5515,"Ġelimin":5516,"Ġowners":5517,"Ġmyster":5518,"Ġbasin":5519,"Ġcrossed":5520,"Ġexperiment":5521,"Ġsurviving":5522,"Ġelectric":5523,"Ġrebu":5524,"Ġdominated":5525,"Ġnegative":5526,"Ġaccompanied":5527,"Ġpagan":5528,"Ġsweet":5529,"Ġpurpose":5530,"Ġsynthes":5531,"ares":5532,"bar":5533,"ja":5534,"oir":5535,"obe":5536,"rum":5537,"Ġsap":5538,"ati":5539,"isf":5540,"Ġhits":5541,"Ġutil":5542,"Ġrand":5543,"Ġconvers":5544,"Ġsections":5545,"oses":5546,"Ġcomic":5547,"Ġsupre":5548,"Ġshop":5549,"Ġlev":5550,"Ġfirm":5551,"Ġboys":5552,"Ġgraves":5553,"Ġcharges":5554,"Ġacres":5555,"Ġdecre":5556,"Ġdecade":5557,"Ġdowntown":5558,"Ġkeats":5559,"Ġmissing":5560,"Ġglob":5561,"Ġhumans":5562,"Ġcougar":5563,"Ġdiscovery":5564,"Ġtells":5565,"Ġgarden":5566,"Ġaware":5567,"Ġarticle":5568,"Ġcambod":5569,"come":5570,"rant":5571,"yles":5572,"Ġari":5573,"Ġcul":5574,"Ġboss":5575,"isy":5576,"ingly":5577,"Ġnathan":5578,"sea":5579,"Ġexact":5580,"ocated":5581,"Ġgoes":5582,"Ġpope":5583,"Ġearn":5584,"Ġspeech":5585,"rence":5586,"amese":5587,"Ġtransform":5588,"Ġdecor":5589,"Ġlob":5590,"Ġ160":5591,"Ġjustice":5592,"Ġtriple":5593,"Ġgreg":5594,"Ġways":5595,"Ġpossibility":5596,"Ġauthors":5597,"Ġsimilarly":5598,"Ġviewed":5599,"Ġsuperior":5600,"Ġcombination":5601,"Ġinvolvement":5602,"Ġdougl":5603,"Ġsurvived":5604,"Ġseemed":5605,"Ġexistence":5606,"Ġsafety":5607,"Ġambass":5608,"Ġwrestling":5609,"Ġthirty":5610,"Ġfictional":5611,"zer":5612,"Ġwolf":5613,"Ġcens":5614,"Ġbought":5615,"Ġfu":5616,"Ġhired":5617,"icks":5618,"Ġnak":5619,"Ġconqu":5620,"istan":5621,"Ġexit":5622,"Ġenl":5623,"Ġmario":5624,"aws":5625,"Ġtransm":5626,"Ġdidn":5627,"Ġ1966":5628,"Ġcrimin":5629,"Ġserves":5630,"Ġcharacteristics":5631,"ographic":5632,"Ġyounger":5633,"Ġtechnical":5634,"Ġclosely":5635,"Ġbraz":5636,"Ġacademic":5637,"Ġexamples":5638,"Ġshooting":5639,"Ġconsisting":5640,"Ġhabitat":5641,"Ġconspir":5642,"kins":5643,"Ġbanks":5644,"Ġmit":5645,"arm":5646,"ications":5647,"Ġones":5648,"imb":5649,"Ġchance":5650,"Ġshore":5651,"ighter":5652,"rupt":5653,"Ġ69":5654,"Ġ87":5655,"Ġdivers":5656,"ifications":5657,"Ġ164":5658,"Ġ1945":5659,"Ġcommanded":5660,"Ġjuan":5661,"Ġ1916":5662,"Ġcorresp":5663,"Ġprograms":5664,"Ġcolonies":5665,"borough":5666,"Ġgirls":5667,"Ġsubstant":5668,"Ġestablishment":5669,"Ġvietnamese":5670,"Ġdistribution":5671,"Ġattract":5672,"Ġconservation":5673,"Ġsymbol":5674,"Ġcorrespond":5675,"rang":5676,"ront":5677,"Ġau":5678,"ini":5679,"Ġward":5680,"Ġdru":5681,"Ġnap":5682,"Ġrick":5683,"utation":5684,"Ġitems":5685,"uma":5686,"opher":5687,"Ġshut":5688,"Ġshall":5689,"abil":5690,"Ġabu":5691,"Ġresour":5692,"Ġpool":5693,"Ġattached":5694,"Ġconsists":5695,"Ġlongest":5696,"Ġprovides":5697,"Ġ1973":5698,"Ġ1967":5699,"Ġmoder":5700,"Ġcourts":5701,"Ġwalter":5702,"Ġ1915":5703,"Ġreviewers":5704,"Ġstoryline":5705,"Ġopposition":5706,"Ġintersection":5707,"Ġoccasionally":5708,"ection":5709,"then":5710,"ym":5711,"Ġaston":5712,"Ġsad":5713,"Ġpuzz":5714,"Ġdim":5715,"Ġhug":5716,"Ġnom":5717,"Ġjes":5718,"Ġkersh":5719,"antly":5720,"Ġarthur":5721,"Ġrecre":5722,"Ġupd":5723,"Ġprint":5724,"Ġjoe":5725,"Ġdefined":5726,"Ġcalls":5727,"Ġeditor":5728,"Ġcontinuing":5729,"Ġ1974":5730,"Ġchel":5731,"Ġviews":5732,"Ġpitch":5733,"Ġtalk":5734,"Ġfacing":5735,"Ġrailroad":5736,"Ġaccompl":5737,"Ġnucleus":5738,"Ġutc":5739,"Ġcontroversy":5740,"Ġchemical":5741,"Ġpsych":5742,"Ġenjoyed":5743,"Ġiguan":5744,"Ġconvection":5745,"oen":5746,"Ġsid":5747,"rec":5748,"eda":5749,"Ġlic":5750,"Ġgully":5751,"usted":5752,"Ġtwel":5753,"Ġreconna":5754,"Ġ63":5755,"Ġguide":5756,"Ġentering":5757,"ropri":5758,"Ġreven":5759,"Ġlanded":5760,"Ġ1978":5761,"Ġ1952":5762,"Ġ1919":5763,"Ġlegacy":5764,"Ġskull":5765,"apping":5766,"Ġholy":5767,"Ġruled":5768,"Ġcruiser":5769,"Ġembassy":5770,"Ġrenamed":5771,"Ġrolling":5772,"hetic":5773,"Ġdeployed":5774,"Ġmendes":5775,"Ġdouglas":5776,"Ġkershaw":5777,"Ġreconnaissance":5778,"rat":5779,"rell":5780,"Ġbert":5781,"Ġinner":5782,"Ġhin":5783,"Ġhull":5784,"Ġgam":5785,"acity":5786,"Ġvon":5787,"Ġshared":5788,"Ġarsen":5789,"Ġfinishing":5790,"Ġknock":5791,"Ġsyd":5792,"Ġguy":5793,"Ġlocations":5794,"Ġ1976":5795,"Ġpassage":5796,"Ġmissions":5797,"pective":5798,"Ġ250":5799,"Ġclubs":5800,"Ġiniti":5801,"Ġhistorians":5802,"Ġfunding":5803,"Ġhappy":5804,"Ġprincipal":5805,"Ġfilled":5806,"Ġcitiz":5807,"Ġapplied":5808,"Ġtwelve":5809,"water":5810,"ycl":5811,"Ġwick":5812,"eds":5813,"Ġfine":5814,"itan":5815,"Ġing":5816,"anz":5817,"Ġdating":5818,"Ġlit":5819,"Ġnic":5820,"Ġgate":5821,"entially":5822,"iday":5823,"Ġjers":5824,"Ġagency":5825,"Ġcolour":5826,"Ġsecure":5827,"iously":5828,"Ġmuslim":5829,"Ġsupposed":5830,"Ġinvited":5831,"Ġdepict":5832,"Ġpopulations":5833,"Ġ175":5834,"Ġexpans":5835,"Ġdescribing":5836,"Ġgrey":5837,"imeter":5838,"Ġwindow":5839,"chest":5840,"Ġfeeling":5841,"ructure":5842,"Ġsucceeded":5843,"Ġdissipated":5844,"Ġchallenge":5845,"Ġthunderbirds":5846,"Ġturkish":5847,"chen":5848,"hi":5849,"Ġtag":5850,"Ġtip":5851,"Ġtetr":5852,"Ġtheater":5853,"Ġcant":5854,"Ġhip":5855,"icop":5856,"Ġlisa":5857,"Ġrene":5858,"Ġgil":5859,"Ġjum":5860,"Ġkang":5861,"iston":5862,"Ġbutler":5863,"Ġboise":5864,"achus":5865,"Ġ68":5866,"Ġgrav":5867,"Ġgrade":5868,"Ġcharter":5869,"Ġmoves":5870,"Ġproviding":5871,"Ġ1979":5872,"Ġadvis":5873,"Ġ1917":5874,"Ġ1936":5875,"Ġengineering":5876,"Ġassistance":5877,"Ġinstrument":5878,"Ġpupp":5879,"Ġcemetery":5880,"Ġearthquake":5881,"Ġastronom":5882,"iar":5883,"iary":5884,"rig":5885,"vo":5886,"Ġtied":5887,"Ġsed":5888,"Ġsight":5889,"Ġsang":5890,"Ġnone":5891,"Ġalbert":5892,"Ġjump":5893,"Ġvision":5894,"Ġexerc":5895,"Ġleon":5896,"Ġteeth":5897,"Ġspons":5898,"Ġshear":5899,"Ġpole":5900,"ublin":5901,"Ġdoct":5902,"Ġstead":5903,"Ġdepos":5904,"yson":5905,"Ġdownlo":5906,"anny":5907,"Ġhelicop":5908,"Ġgreatly":5909,"Ġwalk":5910,"Ġdemand":5911,"book":5912,"Ġreplacement":5913,"Ġindeed":5914,"Ġprotagon":5915,"Ġsufficient":5916,"Ġderived":5917,"Ġproducing":5918,"Ġmacle":5919,"Ġancest":5920,"Ġjudge":5921,"Ġgallery":5922,"Ġconsiderable":5923,"Ġpicture":5924,"Ġcertified":5925,"Ġthousands":5926,"Ġhawaii":5927,"Ġcategory":5928,"nic":5929,"Ġcrop":5930,"Ġbly":5931,"Ġpale":5932,"Ġml":5933,"Ġmu":5934,"Ġment":5935,"amin":5936,"otes":5937,"Ġisab":5938,"Ġjones":5939,"Ġanton":5940,"Ġdeck":5941,"usal":5942,"Ġorn":5943,"Ġorchest":5944,"Ġplain":5945,"Ġexpect":5946,"Ġworth":5947,"Ġknots":5948,"Ġverte":5949,"Ġpublisher":5950,"Ġdepicted":5951,"Ġ1982":5952,"Ġ1948":5953,"Ġcrash":5954,"Ġmyc":5955,"Ġprotected":5956,"Ġcommunist":5957,"Ġreplace":5958,"shire":5959,"Ġcivilian":5960,"Ġhollywood":5961,"Ġqueens":5962,"Ġresear":5963,"Ġimmig":5964,"Ġdollar":5965,"Ġbono":5966,"Ġacquired":5967,"Ġrescue":5968,"Ġcloud":5969,"Ġamphib":5970,"Ġsiege":5971,"crib":5972,"ev":5973,"ture":5974,"Ġsi":5975,"Ġsanta":5976,"Ġcater":5977,"Ġoreg":5978,"Ġbath":5979,"Ġmtv":5980,"Ġdublin":5981,"Ġjay":5982,"Ġjain":5983,"Ġkid":5984,"agre":5985,"pping":5986,"Ġwarri":5987,"attle":5988,"Ġspecifically":5989,"Ġsuccessor":5990,"Ġcrosses":5991,"Ġwatched":5992,"chers":5993,"Ġprofessor":5994,"Ġinspir":5995,"Ġremainder":5996,"Ġcolorado":5997,"Ġanthony":5998,"Ġrhyth":5999,"Ġghost":6000,"Ġelectronic":6001,"Ġeuropium":6002,"Ġbrazil":6003,"Ġoregon":6004,"uct":6005,"rets":6006,"ora":6007,"Ġdota":6008,"aser":6009,"Ġnc":6010,"Ġnose":6011,"Ġalle":6012,"Ġjazz":6013,"Ġkhn":6014,"Ġaml":6015,"Ġmarl":6016,"Ġmaria":6017,"ffman":6018,"Ġacid":6019,"phy":6020,"Ġwhereas":6021,"Ġreceive":6022,"Ġ1963":6023,"Ġattacking":6024,"engers":6025,"Ġveget":6026,"Ġtypical":6027,"Ġdenied":6028,"Ġflights":6029,"Ġsubstit":6030,"Ġathletic":6031,"Ġfavorite":6032,"Ġconcerns":6033,"Ġprincip":6034,"Ġcharlie":6035,"Ġopinion":6036,"Ġwedding":6037,"Ġsunday":6038,"Ġblythe":6039,"die":6040,"eor":6041,"theless":6042,"rel":6043,"Ġbrian":6044,"Ġdock":6045,"Ġdiam":6046,"ione":6047,"ilton":6048,"Ġstem":6049,"Ġhed":6050,"idae":6051,"Ġkits":6052,"Ġvel":6053,"rif":6054,"ichol":6055,"Ġ58":6056,"Ġevita":6057,"Ġblocks":6058,"Ġknight":6059,"Ġ78":6060,"Ġcarbon":6061,"Ġhoward":6062,"Ġmonuments":6063,"Ġphill":6064,"Ġtransition":6065,"Ġinstru":6066,"Ġshowing":6067,"Ġnevertheless":6068,"Ġhyp":6069,"Ġbiography":6070,"Ġ1890":6071,"Ġmeasures":6072,"Ġcredits":6073,"Ġarranged":6074,"Ġcroatian":6075,"Ġratings":6076,"Ġsplit":6077,"ranean":6078,"Ġjersey":6079,"iable":6080,"no":6081,"zac":6082,"Ġax":6083,"Ġinland":6084,"Ġlenn":6085,"Ġkat":6086,"estone":6087,"Ġproceed":6088,"ardo":6089,"ameter":6090,"Ġamate":6091,"Ġdesire":6092,"Ġinteract":6093,"Ġflat":6094,"Ġ74":6095,"Ġjoy":6096,"Ġcarib":6097,"Ġfranch":6098,"erick":6099,"Ġaddress":6100,"Ġmeteor":6101,"Ġstorms":6102,"Ġtries":6103,"Ġtownship":6104,"Ġromantic":6105,"Ġreviewer":6106,"Ġseeing":6107,"Ġreading":6108,"Ġdestroyers":6109,"Ġengineers":6110,"Ġmemory":6111,"Ġcircum":6112,"Ġlaunch":6113,"Ġuncle":6114,"Ġjamal":6115,"Ġcarrying":6116,"Ġextrem":6117,"break":6118,"Ġportrait":6119,"Ġsupreme":6120,"Ġkhnh":6121,"bra":6122,"Ġcos":6123,"Ġori":6124,"Ġfount":6125,"eless":6126,"Ġonline":6127,"Ġstere":6128,"Ġalan":6129,"Ġkel":6130,"rien":6131,"Ġnoting":6132,"pty":6133,"Ġfiring":6134,"Ġworst":6135,"Ġafterwards":6136,"Ġcommem":6137,"Ġmeets":6138,"Ġpartners":6139,"Ġmayor":6140,"Ġ91":6141,"Ġ89":6142,"aware":6143,"Ġretreat":6144,"Ġcapacity":6145,"Ġstew":6146,"Ġreputation":6147,"Ġoperating":6148,"ception":6149,"Ġ1953":6150,"Ġbush":6151,"Ġreality":6152,"Ġreferences":6153,"encies":6154,"Ġduke":6155,"Ġholds":6156,"Ġdifficulty":6157,"Ġliu":6158,"Ġrecognition":6159,"Ġstrengthen":6160,"Ġrepublican":6161,"Ġinhabit":6162,"Ġstephen":6163,"Ġtennyson":6164,"Ġportrayed":6165,"Ġterminus":6166,"Ġalexander":6167,"mod":6168,"sp":6169,"yc":6170,"Ġsab":6171,"itled":6172,"Ġmock":6173,"Ġdipl":6174,"Ġhud":6175,"Ġgone":6176,"lyss":6177,"Ġrio":6178,"Ġalleg":6179,"Ġplants":6180,"Ġcla":6181,"Ġspr":6182,"Ġspin":6183,"Ġflo":6184,"Ġbrand":6185,"Ġsomeone":6186,"Ġverse":6187,"Ġbrook":6188,"Ġsimon":6189,"Ġmagic":6190,"Ġbreaking":6191,"Ġ1913":6192,"Ġlabour":6193,"borne":6194,"Ġcreator":6195,"Ġrarely":6196,"Ġrecovered":6197,"Ġironclads":6198,"Ġchairman":6199,"Ġcustom":6200,"Ġiraq":6201,"Ġambassador":6202,"Ġmacleod":6203,"yard":6204,"Ġsher":6205,"Ġpier":6206,"iling":6207,"amy":6208,"adal":6209,"adow":6210,"Ġanzac":6211,"uli":6212,"osis":6213,"Ġ1900":6214,"Ġwealth":6215,"Ġaccounts":6216,"Ġacts":6217,"Ġsimone":6218,"Ġestate":6219,"Ġcris":6220,"Ġdemol":6221,"Ġbasic":6222,"Ġopponents":6223,"Ġprize":6224,"Ġcompetitions":6225,"Ġ1880":6226,"Ġseparated":6227,"Ġresponsibility":6228,"Ġmaintain":6229,"Ġsevent":6230,"Ġmethods":6231,"Ġpicked":6232,"Ġironclad":6233,"Ġdemocratic":6234,"Ġcolumbia":6235,"Ġrestaurant":6236,"Ġfreedom":6237,"con":6238,"rations":6239,"tic":6240,"Ġwy":6241,"Ġpav":6242,"any":6243,"Ġhay":6244,"Ġhem":6245,"Ġvary":6246,"agn":6247,"unt":6248,"Ġexchange":6249,"pton":6250,"Ġoffers":6251,"Ġoutstanding":6252,"Ġfrig":6253,"Ġentry":6254,"Ġloyal":6255,"Ġimposs":6256,"Ġ176":6257,"Ġexpos":6258,"Ġorganizations":6259,"Ġappearing":6260,"Ġattempting":6261,"Ġnether":6262,"Ġconvoy":6263,"Ġprede":6264,"Ġcardinal":6265,"Ġcredited":6266,"Ġinvestigation":6267,"Ġwrong":6268,"Ġalternative":6269,"Ġelsewhere":6270,"Ġvessels":6271,"Ġattributed":6272,"Ġeagle":6273,"Ġpenalty":6274,"Ġbridges":6275,"Ġcaribbe":6276,"bles":6277,"eenth":6278,"ien":6279,"kes":6280,"oh":6281,"Ġtig":6282,"Ġfab":6283,"Ġloren":6284,"Ġulyss":6285,"Ġraces":6286,"Ġcongreg":6287,"Ġansw":6288,"ussion":6289,"agu":6290,"Ġsure":6291,"apped":6292,"Ġroy":6293,"iece":6294,"Ġteaching":6295,"Ġperry":6296,"Ġwarm":6297,"Ġremember":6298,"raltar":6299,"Ġaccur":6300,"Ġ1949":6301,"Ġleads":6302,"Ġdesignation":6303,"Ġanniversary":6304,"Ġcamps":6305,"Ġtrials":6306,"Ġ1951":6307,"Ġ1956":6308,"Ġwindows":6309,"Ġmerc":6310,"Ġstatement":6311,"Ġoccurs":6312,"Ġhomer":6313,"going":6314,"Ġsenate":6315,"Ġthreatened":6316,"worth":6317,"Ġrifles":6318,"Ġbeautiful":6319,"Ġdiscussed":6320,"Ġleadership":6321,"Ġgibraltar":6322,"Ġagricultural":6323,"Ġconnection":6324,"Ġcaval":6325,"Ġerected":6326,"Ġmunicipal":6327,"Ġglobal":6328,"Ġextremely":6329,"Ġcaribbean":6330,"Ġulysses":6331,"cks":6332,"eper":6333,"gas":6334,"ients":6335,"inn":6336,"Ġsell":6337,"Ġpig":6338,"inger":6339,"ceived":6340,"agues":6341,"avia":6342,"arts":6343,"Ġmanner":6344,"Ġcommitted":6345,"Ġmarks":6346,"Ġaggress":6347,"Ġdesert":6348,"Ġevil":6349,"Ġ79":6350,"Ġregime":6351,"Ġaccused":6352,"Ġmonarch":6353,"Ġ123":6354,"Ġstudied":6355,"Ġmissed":6356,"Ġcollect":6357,"Ġmoz":6358,"Ġarchb":6359,"Ġsword":6360,"Ġapproached":6361,"Ġcalc":6362,"Ġpursu":6363,"Ġaffect":6364,"Ġfalling":6365,"Ġinterested":6366,"iffe":6367,"Ġappoint":6368,"Ġindicate":6369,"Ġemerg":6370,"Ġolympics":6371,"Ġceremony":6372,"Ġdismissed":6373,"Ġatmosphere":6374,"Ġisolated":6375,"Ġpredecess":6376,"ipe":6377,"Ġsession":6378,"Ġcot":6379,"Ġbin":6380,"Ġmul":6381,"Ġgather":6382,"Ġchan":6383,"opes":6384,"Ġplun":6385,"Ġtwin":6386,"Ġbeck":6387,"Ġprey":6388,"Ġpregn":6389,"Ġ67":6390,"mann":6391,"Ġsoul":6392,"Ġnoisy":6393,"Ġ88":6394,"Ġretire":6395,"Ġ1983":6396,"Ġnovels":6397,"Ġwinner":6398,"Ġcampb":6399,"Ġclasses":6400,"Ġclassical":6401,"Ġcommunities":6402,"Ġcovers":6403,"Ġhoriz":6404,"Ġruler":6405,"Ġtribes":6406,"Ġhosted":6407,"Ġhearts":6408,"Ġduties":6409,"Ġninth":6410,"Ġequipped":6411,"Ġdollars":6412,"Ġhornung":6413,"Ġgeorgian":6414,"Ġrecommended":6415,"Ġvictims":6416,"Ġsurvivors":6417,"Ġremnants":6418,"Ġparallel":6419,"oom":6420,"pret":6421,"uit":6422,"zz":6423,"Ġfaces":6424,"Ġpup":6425,"Ġthro":6426,"Ġgore":6427,"Ġheat":6428,"idden":6429,"othes":6430,"istol":6431,"Ġshif":6432,"elli":6433,"Ġdisapp":6434,"Ġsecured":6435,"Ġsoil":6436,"Ġretained":6437,"Ġguerr":6438,"Ġphoen":6439,"Ġarmored":6440,"Ġsimps":6441,"Ġ112":6442,"Ġjunction":6443,"Ġ1961":6444,"Ġeliz":6445,"Ġstarred":6446,"Ġvisible":6447,"Ġbelieves":6448,"Ġmerch":6449,"Ġstrongly":6450,"Ġprogramme":6451,"Ġsonic":6452,"Ġsuffering":6453,"Ġsettle":6454,"Ġselection":6455,"Ġdiameter":6456,"Ġforests":6457,"Ġcamera":6458,"Ġfeelings":6459,"Ġautom":6460,"Ġimmediate":6461,"Ġexception":6462,"Ġdynam":6463,"Ġemerged":6464,"Ġarrangement":6465,"Ġalien":6466,"Ġmessage":6467,"Ġtunnel":6468,"Ġneighbor":6469,"Ġbattleships":6470,"Ġfrancisco":6471,"Ġpyram":6472,"Ġritual":6473,"Ġeggs":6474,"Ġresistance":6475,"Ġchelsea":6476,"Ġiguanodon":6477,"Ġsimpsons":6478,"gie":6479,"noon":6480,"oly":6481,"uge":6482,"var":6483,"wan":6484,"Ġern":6485,"Ġah":6486,"Ġay":6487,"Ġsons":6488,"Ġsara":6489,"Ġbou":6490,"Ġbure":6491,"Ġbang":6492,"orters":6493,"Ġpad":6494,"Ġech":6495,"Ġherit":6496,"ivals":6497,"Ġalt":6498,"etts":6499,"Ġvac":6500,"Ġshots":6501,"oca":6502,"Ġintention":6503,"Ġafternoon":6504,"Ġpartly":6505,"Ġweb":6506,"Ġprin":6507,"Ġmah":6508,"Ġarmour":6509,"Ġarmoured":6510,"Ġdriving":6511,"Ġpassengers":6512,"Ġconcerts":6513,"Ġrestoration":6514,"inking":6515,"Ġpatrick":6516,"Ġstands":6517,"Ġconvin":6518,"Ġnatives":6519,"Ġimprove":6520,"Ġintensified":6521,"Ġcambridge":6522,"Ġdrawing":6523,"ooth":6524,"Ġbringing":6525,"Ġcandidate":6526,"Ġdoubt":6527,"Ġspecimens":6528,"Ġkurt":6529,"Ġreconstruction":6530,"Ġunusual":6531,"Ġchamber":6532,"Ġtetrarch":6533,"Ġheritage":6534,"ext":6535,"nell":6536,"right":6537,"Ġtaught":6538,"Ġcape":6539,"organ":6540,"Ġmam":6541,"Ġlap":6542,"Ġrever":6543,"Ġgry":6544,"aya":6545,"Ġjenn":6546,"Ġvoy":6547,"aga":6548,"Ġinte":6549,"Ġspacing":6550,"oking":6551,"Ġparties":6552,"Ġdispl":6553,"Ġcarved":6554,"Ġdefences":6555,"Ġdefended":6556,"Ġmaeda":6557,"Ġlover":6558,"aza":6559,"Ġraf":6560,"Ġ1910":6561,"Ġmoral":6562,"Ġlegs":6563,"Ġpatri":6564,"Ġdestiny":6565,"Ġapproved":6566,"oba":6567,"Ġburial":6568,"Ġhamilton":6569,"Ġromani":6570,"Ġtests":6571,"Ġmadonna":6572,"Ġrebell":6573,"Ġmulti":6574,"Ġrooms":6575,"Ġnomination":6576,"Ġscholar":6577,"Ġconstantine":6578,"Ġarrested":6579,"Ġobtained":6580,"Ġhaiti":6581,"Ġlearning":6582,"Ġhibari":6583,"Ġhindu":6584,"Ġrenew":6585,"Ġdiplom":6586,"bur":6587,"ruli":6588,"Ġtu":6589,"Ġske":6590,"Ġwel":6591,"Ġwonder":6592,"Ġoak":6593,"Ġfold":6594,"Ġfitted":6595,"orer":6596,"Ġpushed":6597,"esis":6598,"Ġgle":6599,"aments":6600,"acent":6601,"Ġstyles":6602,"Ġjury":6603,"uses":6604,"Ġblues":6605,"Ġremark":6606,"Ġ99":6607,"Ġackn":6608,"Ġincome":6609,"Ġcounties":6610,"Ġinfr":6611,"Ġimplement":6612,"Ġsigning":6613,"Ġevergl":6614,"Ġreturns":6615,"Ġstarr":6616,"Ġeasy":6617,"Ġdebate":6618,"ivalent":6619,"Ġdetect":6620,"Ġchanging":6621,"Ġmassachus":6622,"Ġcloser":6623,"Ġterritories":6624,"Ġqedar":6625,"Ġvenus":6626,"Ġoslo":6627,"Ġrangers":6628,"Ġmortal":6629,"Ġarchitecture":6630,"Ġrifle":6631,"Ġattracted":6632,"Ġpurchase":6633,"Ġresources":6634,"Ġarsenal":6635,"Ġexpansion":6636,"Ġimpossible":6637,"Ġbureau":6638,"Ġacknow":6639,"Ġeverglades":6640,"Ġmassachusetts":6641,"fare":6642,"icts":6643,"Ġanne":6644,"Ġsho":6645,"Ġroger":6646,"Ġunp":6647,"Ġclay":6648,"Ġadults":6649,"Ġimpl":6650,"Ġoffense":6651,"Ġoverw":6652,"Ġfled":6653,"ultane":6654,"Ġsongwrit":6655,"Ġsimultane":6656,"Ġ1977":6657,"Ġconfeder":6658,"Ġinternal":6659,"Ġeasily":6660,"quez":6661,"attered":6662,"Ġrocky":6663,"Ġcatch":6664,"Ġobser":6665,"Ġready":6666,"Ġadmitted":6667,"Ġsamuel":6668,"Ġcorner":6669,"Ġmicro":6670,"Ġenterprise":6671,"Ġvessel":6672,"claimed":6673,"Ġsharp":6674,"Ġmongol":6675,"dy":6676,"mel":6677,"math":6678,"named":6679,"Ġtan":6680,"Ġtam":6681,"Ġtie":6682,"Ġbones":6683,"Ġpatt":6684,"Ġdc":6685,"oli":6686,"ophy":6687,"cles":6688,"cliffe":6689,"Ġpreced":6690,"Ġsomewh":6691,"Ġconsum":6692,"Ġdivine":6693,"Ġ05":6694,"Ġ06":6695,"Ġloan":6696,"ockey":6697,"Ġmedium":6698,"Ġmediter":6699,"Ġ1955":6700,"Ġ1937":6701,"Ġdestruction":6702,"Ġposted":6703,"Ġbrigades":6704,"Ġpainted":6705,"Ġtalking":6706,"Ġpromote":6707,"Ġbiographer":6708,"Ġwithdrew":6709,"Ġhunting":6710,"Ġabsor":6711,"Ġcompletion":6712,"Ġmontana":6713,"Ġbombard":6714,"Ġbradford":6715,"Ġdrums":6716,"Ġdocumentary":6717,"Ġfrederick":6718,"Ġoverseas":6719,"Ġamateur":6720,"Ġfountain":6721,"Ġcrisis":6722,"Ġsomewhat":6723,"Ġmediterranean":6724,"bn":6725,"mus":6726,"rus":6727,"vis":6728,"zen":6729,"Ġtick":6730,"onica":6731,"Ġcu":6732,"Ġpure":6733,"Ġlakes":6734,"Ġreag":6735,"Ġgab":6736,"lete":6737,"str":6738,"oles":6739,"Ġrated":6740,"Ġalph":6741,"Ġroxas":6742,"abeth":6743,"Ġaftermath":6744,"Ġpointed":6745,"Ġunderstand":6746,"Ġfollowers":6747,"Ġ07":6748,"Ġrevol":6749,"Ġextension":6750,"Ġmorrison":6751,"Ġlisten":6752,"Ġcirculation":6753,"ucky":6754,"Ġtowers":6755,"Ġregularly":6756,"Ġindicated":6757,"Ġarchaeology":6758,"Ġhappened":6759,"Ġmaryland":6760,"Ġbadly":6761,"Ġconcerned":6762,"Ġjerusal":6763,"Ġhundreds":6764,"Ġowen":6765,"Ġcontroversial":6766,"Ġextreme":6767,"Ġdinosaur":6768,"Ġemotional":6769,"Ġdangerous":6770,"Ġsubmarine":6771,"Ġcircumst":6772,"Ġlorenzo":6773,"Ġjerusalem":6774,"kh":6775,"Ġtong":6776,"Ġsisters":6777,"Ġwants":6778,"Ġpage":6779,"Ġmode":6780,"Ġdna":6781,"Ġhong":6782,"icide":6783,"Ġnbc":6784,"Ġbear":6785,"Ġvast":6786,"osa":6787,"Ġprohib":6788,"Ġprosec":6789,"illing":6790,"Ġexha":6791,"berts":6792,"Ġtruj":6793,"Ġadams":6794,"Ġscrap":6795,"Ġspoke":6796,"Ġuss":6797,"Ġmarg":6798,"Ġaged":6799,"Ġpartial":6800,"amps":6801,"Ġwarning":6802,"Ġassumed":6803,"Ġmaya":6804,"Ġrelative":6805,"Ġproduct":6806,"Ġincom":6807,"Ġeddie":6808,"Ġstef":6809,"inson":6810,"Ġ1954":6811,"Ġchen":6812,"Ġchess":6813,"Ġ1938":6814,"Ġstreak":6815,"Ġpossession":6816,"Ġfootage":6817,"aurus":6818,"Ġ1927":6819,"iveness":6820,"Ġcovering":6821,"Ġsettled":6822,"Ġsatell":6823,"Ġcollaps":6824,"Ġtribute":6825,"Ġsequel":6826,"Ġplatoon":6827,"Ġinstitutions":6828,"Ġsurrounded":6829,"Ġguardian":6830,"Ġclimate":6831,"Ġgeorgia":6832,"Ġsomali":6833,"hews":6834,"Ġmobile":6835,"Ġincorporated":6836,"Ġbehavi":6837,"Ġnerva":6838,"Ġcommemor":6839,"30":6840,"aul":6841,"dal":6842,"fri":6843,"Ġcass":6844,"Ġbos":6845,"itated":6846,"itals":6847,"Ġpir":6848,"Ġmes":6849,"Ġmack":6850,"arf":6851,"Ġdiet":6852,"ashed":6853,"entional":6854,"lying":6855,"Ġforcing":6856,"imate":6857,"otic":6858,"Ġdeem":6859,"using":6860,"Ġroberts":6861,"anti":6862,"Ġclo":6863,"Ġinterpret":6864,"Ġflash":6865,"Ġproducts":6866,"Ġsurpr":6867,"Ġdriven":6868,"Ġstrand":6869,"Ġ178":6870,"Ġ1962":6871,"Ġtemples":6872,"Ġdirectors":6873,"tendo":6874,"Ġjean":6875,"Ġinvolving":6876,"Ġequal":6877,"Ġrepresentative":6878,"Ġlimit":6879,"Ġmeetings":6880,"Ġreduce":6881,"Ġescort":6882,"Ġthinking":6883,"Ġ1870":6884,"Ġnintendo":6885,"Ġshells":6886,"Ġdistributed":6887,"Ġessential":6888,"Ġthrone":6889,"Ġapparently":6890,"Ġtrouble":6891,"Ġencouraged":6892,"Ġdramatic":6893,"Ġelder":6894,"Ġinspiration":6895,"Ġrhythm":6896,"Ġfranchise":6897,"Ġmozamb":6898,"Ġarchbishop":6899,"Ġtrujillo":6900,"20":6901,"cular":6902,"rates":6903,"inals":6904,"Ġbone":6905,"orous":6906,"Ġped":6907,"Ġmall":6908,"Ġlies":6909,"Ġlanc":6910,"Ġgust":6911,"state":6912,"ira":6913,"Ġaniston":6914,"Ġsees":6915,"Ġproport":6916,"ables":6917,"Ġexisted":6918,"Ġadam":6919,"Ġcontext":6920,"Ġammun":6921,"teenth":6922,"Ġserial":6923,"Ġpartially":6924,"Ġinteraction":6925,"Ġcarter":6926,"Ġinstalled":6927,"Ġ1958":6928,"Ġvideos":6929,"Ġharry":6930,"Ġaviation":6931,"Ġlaws":6932,"Ġtreated":6933,"aska":6934,"Ġsatisf":6935,"Ġidentity":6936,"Ġstayed":6937,"Ġdetailed":6938,"Ġobservations":6939,"Ġhoped":6940,"Ġlinked":6941,"Ġlords":6942,"Ġvoted":6943,"Ġmasters":6944,"Ġgiant":6945,"Ġrhodesian":6946,"Ġargentina":6947,"Ġfungus":6948,"Ġunsuccessful":6949,"Ġammunition":6950,"pus":6951,"Ġsulf":6952,"rees":6953,"Ġfern":6954,"enburg":6955,"Ġdh":6956,"Ġdag":6957,"Ġdanny":6958,"lets":6959,"eline":6960,"uri":6961,"imet":6962,"Ġraw":6963,"Ġisbn":6964,"Ġdean":6965,"iform":6966,"abled":6967,"Ġtex":6968,"Ġrecalled":6969,"Ġcany":6970,"Ġ86":6971,"Ġengines":6972,"Ġsubt":6973,"Ġpreserved":6974,"Ġentitled":6975,"Ġ08":6976,"Ġstein":6977,"Ġ121":6978,"Ġoffices":6979,"Ġglad":6980,"Ġ140":6981,"Ġswit":6982,"Ġactivision":6983,"Ġsquadrons":6984,"Ġaudio":6985,"Ġaccommod":6986,"Ġlanguages":6987,"Ġrelationships":6988,"Ġkorea":6989,"Ġtraveled":6990,"Ġprotests":6991,"Ġpanel":6992,"Ġadventure":6993,"Ġsleep":6994,"Ġfixed":6995,"Ġisabella":6996,"Ġlennon":6997,"Ġplunket":6998,"Ġinfrast":6999,"Ġsel":7000,"Ġsessions":7001,"Ġcraft":7002,"Ġbom":7003,"Ġbah":7004,"Ġpione":7005,"icate":7006,"ician":7007,"Ġryan":7008,"Ġalg":7009,"Ġdeleg":7010,"Ġkong":7011,"Ġplane":7012,"Ġagree":7013,"anger":7014,"Ġupgraded":7015,"Ġflower":7016,"Ġpoets":7017,"Ġbron":7018,"Ġblow":7019,"Ġforming":7020,"Ġgenre":7021,"Ġparks":7022,"Ġministry":7023,"Ġreleg":7024,"Ġairborne":7025,"Ġ127":7026,"Ġobl":7027,"Ġmusicians":7028,"Ġgermans":7029,"Ġdesigns":7030,"Ġmodified":7031,"Ġ1959":7032,"Ġharbour":7033,"Ġvictories":7034,"Ġcalvert":7035,"Ġweekend":7036,"Ġstandards":7037,"Ġlowest":7038,"Ġeffectively":7039,"Ġstatistics":7040,"Ġscientific":7041,"Ġgrounds":7042,"Ġdestroyer":7043,"Ġpraise":7044,"coming":7045,"Ġcollabor":7046,"Ġfunds":7047,"Ġexecuted":7048,"Ġinjured":7049,"Ġabsence":7050,"Ġthousand":7051,"Ġwearing":7052,"Ġresidential":7053,"Ġcriminal":7054,"Ġinitiative":7055,"Ġdiamond":7056,"fc":7057,"night":7058,"sch":7059,"Ġeric":7060,"Ġcave":7061,"Ġcory":7062,"atures":7063,"Ġmud":7064,"Ġdens":7065,"Ġduc":7066,"Ġstu":7067,"Ġjr":7068,"Ġkansas":7069,"Ġleuk":7070,"Ġspur":7071,"Ġmega":7072,"Ġcoloss":7073,"kson":7074,"Ġparas":7075,"Ġengag":7076,"Ġrelie":7077,"Ġappropri":7078,"Ġcrest":7079,"Ġexposed":7080,"Ġwestward":7081,"Ġmedal":7082,"Ġuniversal":7083,"Ġrefers":7084,"Ġhighways":7085,"Ġsuggesting":7086,"Ġdifficulties":7087,"Ġnormally":7088,"Ġdegrees":7089,"Ġvictorian":7090,"jevo":7091,"Ġcaes":7092,"Ġopposite":7093,"Ġpreparation":7094,"Ġsomalia":7095,"Ġstanley":7096,"Ġassassination":7097,"Ġcorrect":7098,"Ġcitizens":7099,"Ġdownload":7100,"Ġkitsune":7101,"Ġinhabitants":7102,"Ġnetherlands":7103,"Ġsarajevo":7104,"ses":7105,"wich":7106,"Ġnd":7107,"Ġaz":7108,"Ġpink":7109,"Ġhast":7110,"Ġna":7111,"acle":7112,"Ġrib":7113,"Ġjif":7114,"Ġkim":7115,"Ġkaw":7116,"uls":7117,"Ġshakes":7118,"udes":7119,"ignment":7120,"ensis":7121,"enses":7122,"Ġformal":7123,"Ġveronica":7124,"Ġ900":7125,"Ġunderst":7126,"Ġactual":7127,"inton":7128,"Ġgenerated":7129,"Ġ09":7130,"Ġjunior":7131,"Ġelabor":7132,"Ġcommunications":7133,"Ġequivalent":7134,"Ġrepresenting":7135,"Ġinfluences":7136,"Ġhonour":7137,"Ġcircle":7138,"Ġstationed":7139,"Ġclearly":7140,"Ġreveals":7141,"Ġpractices":7142,"Ġnorman":7143,"Ġmoments":7144,"Ġchalleng":7145,"Ġpictures":7146,"Ġcabin":7147,"Ġenvironmental":7148,"Ġyankovic":7149,"Ġoccasions":7150,"Ġalleged":7151,"Ġsatellite":7152,"bie":7153,"ji":7154,"pent":7155,"rich":7156,"time":7157,"Ġwish":7158,"Ġcov":7159,"Ġbrick":7160,"Ġmast":7161,"Ġstable":7162,"Ġforb":7163,"Ġislam":7164,"chang":7165,"Ġcong":7166,"Ġcha":7167,"agas":7168,"umin":7169,"una":7170,"illed":7171,"uda":7172,"Ġotherwise":7173,"Ġpoison":7174,"Ġcanter":7175,"Ġcharity":7176,"Ġremarked":7177,"Ġconsc":7178,"Ġmovements":7179,"Ġarmament":7180,"Ġeleven":7181,"Ġdivor":7182,"Ġoperate":7183,"Ġ165":7184,"Ġmetrop":7185,"Ġannually":7186,"Ġrestored":7187,"Ġ1935":7188,"Ġ1929":7189,"Ġyoungest":7190,"Ġcycle":7191,"Ġsolar":7192,"Ġdefeating":7193,"Ġnighting":7194,"Ġwatching":7195,"Ġsounds":7196,"Ġdonald":7197,"Ġaffairs":7198,"Ġburned":7199,"Ġcoup":7200,"Ġ1860":7201,"Ġheaven":7202,"Ġmaterials":7203,"Ġoccupation":7204,"Ġrequested":7205,"Ġwatershed":7206,"Ġadjacent":7207,"Ġclarkson":7208,"Ġdistinguished":7209,"Ġprotagonist":7210,"Ġbeckham":7211,"Ġdisappo":7212,"Ġbehaviour":7213,"bel":7214,"brien":7215,"put":7216,"Ġace":7217,"ono":7218,"Ġwet":7219,"Ġina":7220,"Ġpant":7221,"Ġhi":7222,"rose":7223,"Ġgor":7224,"Ġstood":7225,"olitan":7226,"Ġrag":7227,"Ġalter":7228,"Ġseas":7229,"Ġkiss":7230,"emia":7231,"odies":7232,"Ġprol":7233,"ifer":7234,"Ġnotably":7235,"Ġintense":7236,"rupted":7237,"Ġrecur":7238,"Ġages":7239,"Ġgrace":7240,"Ġmuscar":7241,"Ġwritings":7242,"Ġenth":7243,"Ġenters":7244,"Ġpublishing":7245,"Ġrepr":7246,"Ġshipping":7247,"Ġimprison":7248,"annah":7249,"uchi":7250,"Ġanyone":7251,"Ġ1911":7252,"Ġ1932":7253,"Ġblacks":7254,"Ġdeliber":7255,"Ġpatron":7256,"Ġgodd":7257,"Ġreplied":7258,"Ġ1921":7259,"Ġradcliffe":7260,"Ġcauses":7261,"Ġturrets":7262,"Ġrepresentatives":7263,"Ġburning":7264,"Ġ1909":7265,"Ġrebels":7266,"Ġinnov":7267,"Ġimprov":7268,"Ġchoir":7269,"Ġcomposer":7270,"Ġwilde":7271,"Ġpleasure":7272,"Ġvisitors":7273,"Ġskye":7274,"Ġcancer":7275,"Ġbehavior":7276,"Ġreinforcements":7277,"Ġcorporation":7278,"Ġpyramid":7279,"Ġjifna":7280,"Ġnightingale":7281,"ko":7282,"mate":7283,"mont":7284,"pes":7285,"Ġille":7286,"Ġtack":7287,"onia":7288,"Ġwic":7289,"Ġwine":7290,"Ġciting":7291,"Ġmys":7292,"esse":7293,"inge":7294,"ilation":7295,"iders":7296,"igation":7297,"Ġcomments":7298,"ishment":7299,"raf":7300,"Ġusd":7301,"Ġindones":7302,"Ġrecordings":7303,"Ġproductions":7304,"neth":7305,"Ġaustrian":7306,"Ġwilling":7307,"Ġartific":7308,"Ġinstance":7309,"Ġkevin":7310,"Ġexpensive":7311,"Ġraise":7312,"Ġowner":7313,"Ġ1912":7314,"Ġcheck":7315,"encing":7316,"Ġpredomin":7317,"Ġwilson":7318,"Ġhousing":7319,"Ġinstitution":7320,"Ġrussia":7321,"Ġabsol":7322,"Ġvote":7323,"Ġensure":7324,"Ġjournalist":7325,"Ġpurposes":7326,"Ġcompounds":7327,"Ġtactics":7328,"otype":7329,"Ġcryst":7330,"cribed":7331,"Ġcavalry":7332,"Ġelizabeth":7333,"Ġshakespe":7334,"Ġcanterbury":7335,"cer":7336,"ng":7337,"Ġtight":7338,"real":7339,"Ġbore":7340,"asa":7341,"illy":7342,"Ġstyl":7343,"Ġrig":7344,"Ġrush":7345,"Ġanch":7346,"Ġkw":7347,"apse":7348,"Ġexcess":7349,"Ġenh":7350,"Ġperimeter":7351,"Ġfeather":7352,"Ġresumed":7353,"Ġdisaster":7354,"Ġwarren":7355,"Ġcars":7356,"Ġcargo":7357,"Ġairline":7358,"Ġseverely":7359,"Ġgenerals":7360,"Ġ122":7361,"Ġorigins":7362,"Ġobst":7363,"Ġexpand":7364,"Ġdiscip":7365,"Ġlaud":7366,"Ġ1931":7367,"Ġlawrence":7368,"Ġclaiming":7369,"itarian":7370,"Ġinfluential":7371,"Ġconvention":7372,"Ġinterests":7373,"Ġholiday":7374,"Ġsatur":7375,"Ġrecognised":7376,"Ġmexican":7377,"Ġconduct":7378,"Ġsuspend":7379,"Ġmartial":7380,"Ġinjuries":7381,"itzer":7382,"Ġobjective":7383,"Ġranges":7384,"Ġbulk":7385,"Ġbanai":7386,"Ġwaiting":7387,"Ġdraf":7388,"Ġrevolutionary":7389,"Ġthrowing":7390,"Ġgrammy":7391,"Ġcrusad":7392,"iques":7393,"Ġcotton":7394,"Ġoverwhel":7395,"Ġshakespeare":7396,"cru":7397,"oz":7398,"uv":7399,"Ġtale":7400,"heim":7401,"Ġsale":7402,"Ġwag":7403,"Ġwings":7404,"Ġoption":7405,"Ġbapt":7406,"Ġfoss":7407,"Ġtoll":7408,"icit":7409,"Ġrect":7410,"Ġgri":7411,"owitz":7412,"Ġkin":7413,"avda":7414,"Ġshield":7415,"Ġtrained":7416,"iang":7417,"Ġclock":7418,"Ġboom":7419,"Ġteach":7420,"Ġspaces":7421,"Ġago":7422,"Ġagents":7423,"Ġcoleman":7424,"Ġprice":7425,"Ġformally":7426,"Ġnorway":7427,"Ġunderstanding":7428,"Ġcarries":7429,"Ġparish":7430,"Ġbuck":7431,"Ġsupporters":7432,"Ġpoland":7433,"Ġinstall":7434,"Ġmetall":7435,"Ġconsidering":7436,"Ġbases":7437,"Ġavo":7438,"Ġcurt":7439,"Ġformerly":7440,"Ġtrading":7441,"Ġcatal":7442,"Ġtales":7443,"Ġneeds":7444,"Ġmixture":7445,"Ġceratops":7446,"Ġcrews":7447,"Ġgarrison":7448,"Ġinhg":7449,"Ġschedule":7450,"Ġlegislation":7451,"Ġethnic":7452,"Ġspecimen":7453,"yrin":7454,"Ġlbw":7455,"Ġminimum":7456,"Ġproposal":7457,"Ġdelayed":7458,"Ġpreferred":7459,"Ġjesus":7460,"Ġcircumstances":7461,"Ġinfrastructure":7462,"bing":7463,"burn":7464,"fire":7465,"ois":7466,"wen":7467,"Ġtast":7468,"Ġsic":7469,"Ġcake":7470,"Ġfate":7471,"Ġmant":7472,"Ġhou":7473,"Ġhob":7474,"Ġlt":7475,"Ġlas":7476,"Ġlith":7477,"Ġnur":7478,"Ġforg":7479,"Ġanime":7480,"Ġanek":7481,"Ġvand":7482,"ifies":7483,"ategy":7484,"ante":7485,"Ġherg":7486,"Ġabd":7487,"Ġgoffman":7488,"Ġplayoff":7489,"aren":7490,"Ġprefect":7491,"Ġgran":7492,"Ġregiments":7493,"Ġ02":7494,"Ġreprodu":7495,"Ġports":7496,"Ġ161":7497,"Ġstrategy":7498,"Ġmusician":7499,"Ġimpress":7500,"Ġgerard":7501,"Ġjohnston":7502,"Ġpersu":7503,"ahl":7504,"Ġmodels":7505,"Ġconcur":7506,"Ġclassification":7507,"Ġpublications":7508,"Ġgeoff":7509,"Ġ1933":7510,"Ġantic":7511,"Ġrefuge":7512,"Ġarriving":7513,"Ġlisting":7514,"Ġperiods":7515,"Ġpropag":7516,"Ġsalv":7517,"Ġordin":7518,"Ġturb":7519,"Ġhamlet":7520,"Ġlabyrin":7521,"Ġheavyweight":7522,"Ġargues":7523,"Ġfallen":7524,"after":7525,"Ġfuner":7526,"Ġselect":7527,"Ġkilmer":7528,"forced":7529,"Ġproperties":7530,"Ġobjects":7531,"Ġprevented":7532,"Ġadopt":7533,"Ġdefending":7534,"Ġdefenders":7535,"Ġjaneiro":7536,"Ġbolvar":7537,"criptions":7538,"Ġsegment":7539,"Ġstrategic":7540,"Ġdialogue":7541,"Ġscheme":7542,"Ġindigen":7543,"Ġsaprang":7544,"Ġcambodia":7545,"Ġdoctr":7546,"Ġqueensland":7547,"Ġemergency":7548,"Ġconvinced":7549,"Ġacknowled":7550,"Ġdeemed":7551,"Ġcolossal":7552,"Ġinaug":7553,"aver":7554,"wa":7555,"hered":7556,"erog":7557,"Ġwrap":7558,"Ġwimb":7559,"Ġbce":7560,"isp":7561,"rous":7562,"leton":7563,"ima":7564,"utor":7565,"etime":7566,"Ġjma":7567,"Ġanaly":7568,"emies":7569,"Ġcomplic":7570,"Ġclinton":7571,"Ġmanus":7572,"Ġmanga":7573,"Ġteen":7574,"Ġpret":7575,"Ġprerog":7576,"Ġquant":7577,"Ġconsult":7578,"Ġfrust":7579,"Ġfraser":7580,"Ġ84":7581,"Ġphr":7582,"Ġimpressed":7583,"ledon":7584,"Ġstarling":7585,"Ġuseful":7586,"Ġtemporary":7587,"Ġextent":7588,"Ġmoore":7589,"Ġswim":7590,"Ġlawton":7591,"Ġrepresents":7592,"Ġcriticised":7593,"Ġsurvive":7594,"Ġfifteen":7595,"Ġtravelled":7596,"Ġdeparture":7597,"Ġnarrative":7598,"Ġliked":7599,"Ġtribut":7600,"Ġsusp":7601,"Ġkoreans":7602,"Ġdocuments":7603,"Ġrichardson":7604,"Ġdisplays":7605,"Ġsailed":7606,"Ġsoutheastern":7607,"Ġgrown":7608,"Ġphotograph":7609,"Ġdawn":7610,"Ġvehicle":7611,"Ġlaboratory":7612,"Ġstruggle":7613,"Ġnazi":7614,"Ġinstruments":7615,"Ġspiritual":7616,"Ġpalestine":7617,"Ġsuddenly":7618,"Ġmeteorological":7619,"Ġcanyon":7620,"Ġaneknt":7621,"Ġwimbledon":7622,"ware":7623,"Ġtai":7624,"Ġaa":7625,"Ġaqu":7626,"Ġsb":7627,"Ġcull":7628,"Ġcelt":7629,"atropical":7630,"Ġmail":7631,"esco":7632,"Ġdick":7633,"Ġhockey":7634,"ilty":7635,"Ġgent":7636,"Ġbearing":7637,"Ġrar":7638,"Ġrav":7639,"Ġrising":7640,"Ġky":7641,"apers":7642,"atech":7643,"Ġmargin":7644,"Ġpartner":7645,"Ġsymp":7646,"Ġsmooth":7647,"Ġdriver":7648,"Ġloose":7649,"Ġslide":7650,"Ġobv":7651,"Ġprompted":7652,"Ġdelaware":7653,"Ġorganised":7654,"Ġchristopher":7655,"Ġpatrol":7656,"Ġharrison":7657,"box":7658,"Ġfurthermore":7659,"Ġvillages":7660,"Ġcasting":7661,"Ġdevot":7662,"Ġmalays":7663,"Ġrounds":7664,"Ġaudiences":7665,"Ġcondem":7666,"Ġsequences":7667,"Ġpoorly":7668,"Ġestablishing":7669,"Ġbatteries":7670,"Ġwright":7671,"Ġextratropical":7672,"Ġadventures":7673,"Ġrecommend":7674,"Ġadvertising":7675,"Ġfalse":7676,"Ġreservoir":7677,"Ġrebuilt":7678,"Ġdecorated":7679,"Ġsubstantial":7680,"Ġpuppet":7681,"Ġwarrior":7682,"Ġpupils":7683,"Ġfernand":7684,"bound":7685,"eu":7686,"hist":7687,"wer":7688,"inery":7689,"Ġbun":7690,"Ġfert":7691,"Ġpull":7692,"Ġdak":7693,"Ġnurs":7694,"ilst":7695,"Ġthor":7696,"olith":7697,"Ġkomb":7698,"opl":7699,"Ġuniform":7700,"Ġallies":7701,"Ġoverl":7702,"Ġcoaching":7703,"Ġoutbreak":7704,"rene":7705,"Ġgrave":7706,"Ġassisted":7707,"Ġ92":7708,"Ġunderw":7709,"Ġparam":7710,"Ġengage":7711,"Ġguilty":7712,"Ġ03":7713,"Ġkeamy":7714,"Ġpassion":7715,"Ġtempor":7716,"Ġconsiders":7717,"Ġwaterfall":7718,"Ġchildhood":7719,"Ġarrive":7720,"Ġinternet":7721,"Ġorganisation":7722,"Ġpossess":7723,"Ġbelieving":7724,"Ġeveryone":7725,"Ġturtle":7726,"Ġsituated":7727,"Ġdoesn":7728,"Ġatlanta":7729,"Ġhitler":7730,"Ġberlin":7731,"roscop":7732,"Ġloud":7733,"Ġimagine":7734,"Ġadministrative":7735,"Ġgraphics":7736,"Ġevacuation":7737,"Ġdepending":7738,"Ġpursue":7739,"Ġmoderate":7740,"Ġintegr":7741,"Ġsimultaneously":7742,"Ġartificial":7743,"Ġindigenous":7744,"Ġmanuscript":7745,"Ġkombat":7746,"gle":7747,"gets":7748,"hol":7749,"ook":7750,"vant":7751,"wick":7752,"Ġtide":7753,"inus":7754,"Ġsas":7755,"Ġbag":7756,"Ġfishing":7757,"Ġfasc":7758,"Ġmk":7759,"Ġmouse":7760,"aru":7761,"Ġdont":7762,"roit":7763,"Ġlose":7764,"Ġlists":7765,"Ġlanes":7766,"Ġnit":7767,"Ġnichol":7768,"ili":7769,"Ġgary":7770,"oma":7771,"Ġust":7772,"idation":7773,"Ġasc":7774,"thosaurus":7775,"Ġwhilst":7776,"Ġconclusion":7777,"ager":7778,"aboration":7779,"Ġarj":7780,"Ġscattered":7781,"ogy":7782,"Ġabund":7783,"Ġresidence":7784,"Ġresigned":7785,"ricted":7786,"Ġinterpre":7787,"Ġattained":7788,"Ġwarships":7789,"Ġthereafter":7790,"Ġgene":7791,"Ġelections":7792,"Ġmiller":7793,"Ġmainland":7794,"Ġ162":7795,"Ġcontinental":7796,"atherine":7797,"Ġhelmet":7798,"Ġwalking":7799,"Ġ1957":7800,"Ġharm":7801,"Ġharbor":7802,"Ġdifferences":7803,"Ġamongst":7804,"Ġ1928":7805,"Ġdetroit":7806,"Ġcompete":7807,"Ġreaders":7808,"Ġcivilians":7809,"Ġtechniques":7810,"Ġinteresting":7811,"onomy":7812,"Ġcollaboration":7813,"Ġinformed":7814,"Ġcamer":7815,"Ġachieve":7816,"Ġferry":7817,"Ġarabic":7818,"Ġwitch":7819,"Ġtailed":7820,"Ġexperiences":7821,"Ġsaved":7822,"Ġencountered":7823,"Ġorbit":7824,"hua":7825,"Ġrajne":7826,"Ġresearchers":7827,"Ġplunketts":7828,"Ġcorythosaurus":7829,"Ġgoddess":7830,"Ġsaturday":7831,"dles":7832,"dale":7833,"rants":7834,"uable":7835,"Ġtenth":7836,"Ġsq":7837,"Ġwander":7838,"Ġcow":7839,"Ġcbs":7840,"Ġbaker":7841,"Ġfia":7842,"Ġmask":7843,"Ġhub":7844,"Ġgill":7845,"Ġwasn":7846,"Ġaside":7847,"olay":7848,"owed":7849,"Ġalive":7850,"utz":7851,"Ġsect":7852,"Ġsuicide":7853,"Ġprove":7854,"apore":7855,"Ġplus":7856,"uster":7857,"Ġherald":7858,"Ġamaz":7859,"Ġallah":7860,"Ġresign":7861,"Ġevolution":7862,"Ġparaly":7863,"Ġnorthward":7864,"cki":7865,"Ġairfield":7866,"Ġ125":7867,"Ġsingapore":7868,"Ġdepicts":7869,"Ġ166":7870,"Ġoriginated":7871,"Ġ155":7872,"Ġprovision":7873,"Ġfurt":7874,"Ġconfront":7875,"Ġprompt":7876,"Ġrestrict":7877,"Ġ1926":7878,"Ġlooks":7879,"Ġpalmy":7880,"Ġphilip":7881,"Ġvoiced":7882,"Ġstriking":7883,"Ġbiggest":7884,"Ġjews":7885,"Ġcreative":7886,"Ġkilome":7887,"Ġindicating":7888,"caa":7889,"Ġcertainly":7890,"Ġranging":7891,"Ġobservatory":7892,"Ġdetermine":7893,"Ġweapon":7894,"Ġsacred":7895,"Ġtouchdowns":7896,"Ġdemonstrated":7897,"Ġpremiere":7898,"Ġconspiracy":7899,"Ġmarlborough":7900,"Ġexposure":7901,"Ġrebellion":7902,"Ġprerogative":7903,"cour":7904,"life":7905,"rating":7906,"rator":7907,"rabb":7908,"va":7909,"vn":7910,"western":7911,"Ġsaves":7912,"Ġmbar":7913,"Ġdave":7914,"Ġhok":7915,"Ġnl":7916,"Ġrender":7917,"Ġgates":7918,"elin":7919,"acles":7920,"Ġric":7921,"Ġrates":7922,"owie":7923,"Ġsuit":7924,"Ġtru":7925,"Ġtrick":7926,"Ġbutter":7927,"Ġallen":7928,"Ġfei":7929,"Ġresolution":7930,"Ġupset":7931,"Ġflot":7932,"Ġpeters":7933,"Ġcharged":7934,"Ġparach":7935,"Ġbuff":7936,"ologies":7937,"Ġsurge":7938,"Ġ101":7939,"Ġrepair":7940,"Ġdrain":7941,"Ġmillenn":7942,"Ġterrain":7943,"Ġdescribe":7944,"isms":7945,"Ġconflic":7946,"Ġ1934":7947,"Ġconstruct":7948,"Ġcleared":7949,"Ġsoldier":7950,"Ġexpert":7951,"Ġputting":7952,"Ġfactors":7953,"Ġolme":7954,"Ġranking":7955,"Ġclosest":7956,"Ġcruise":7957,"Ġ1850":7958,"Ġviolent":7959,"Ġgarca":7960,"Ġmelody":7961,"Ġdrove":7962,"Ġdispat":7963,"Ġlayer":7964,"Ġdisplayed":7965,"Ġfrequent":7966,"Ġarchitectural":7967,"Ġsynag":7968,"Ġopportunities":7969,"Ġelevation":7970,"Ġillustrated":7971,"Ġneutral":7972,"Ġconsequently":7973,"Ġterrorist":7974,"Ġricky":7975,"Ġphillies":7976,"Ġpredecessor":7977,"Ġprincess":7978,"Ġstefani":7979,"gam":7980,"zing":7981,"Ġcode":7982,"Ġcatech":7983,"Ġdies":7984,"Ġhars":7985,"rot":7986,"Ġliv":7987,"Ġlun":7988,"Ġbears":7989,"Ġhend":7990,"Ġhearing":7991,"Ġforty":7992,"irid":7993,"ivan":7994,"Ġride":7995,"owa":7996,"Ġkam":7997,"Ġchanc":7998,"Ġshik":7999}